[PAD]
[UNK]
[CLS]
[SEP]
[MASK]
!
"
#
$
%
&
'
(
)
*
+
,
-
.
/
0
1
2
3
4
5
6
7
8
9
:
;
<
=
>
?
@
A
B
C
D
E
F
G
H
I
J
K
L
M
N
O
P
Q
R
S
T
U
V
W
X
Y
Z
[
\
]
^
_
`
a
b
c
d
e
f
g
h
i
j
k
l
m
n
o
p
q
r
s
t
u
v
w
x
y
z
{
|
}
~
£
¤
§
«
®
°
±
²
³
´
·
¹
»
½
×
à
á
â
ä
ç
è
é
í
ó
ö
÷
ü
ā
ʔ
ʕ
˂
˃
ː
˘
˙
˚
˝
̀
́
̄
̆
̈
̊
̎
̐
̑
̣
̤
̥
̩
̫
̴
̵
̶
̷
͈
͡
΄
Δ
α
β
γ
δ
ε
θ
ι
κ
λ
μ
ν
ο
π
ρ
ς
σ
τ
ω
А
В
И
К
М
П
Р
С
а
б
в
г
д
е
ж
з
и
й
к
л
м
н
о
п
р
с
т
у
х
ц
ч
ш
ы
ь
ю
я
ا
ل
و
٩
ෆ
ั
๑
ღ
ᄀ
ᄂ
ᄃ
ᄉ
ᄋ
ᄒ
ᅡ
ᅵ
ᆞ
ᆡ
ᆢ
ᆫ
ᴀ
ᴇ
ᴏ
ᴗ
ᴬ
ᴱ
–
—
―
‘
’
“
”
•
․
‥
…
‧
′
″
※
‼
⁉
⁴
₁
₂
₩
€
⃣
℃
ℓ
™
⅓
⅔
Ⅰ
Ⅱ
Ⅲ
Ⅳ
Ⅴ
ⅰ
ⅱ
←
↑
→
↓
↔
↘
↙
⇒
∑
−
∗
∙
∠
∥
∼
≪
≫
⊙
⋅
①
②
③
④
⑤
⑥
⑦
⑧
⑨
⑩
⑪
⑫
⑬
⑭
⑴
⑵
⑶
⑷
⑸
⒜
⒝
ⓐ
ⓑ
ⓒ
ⓓ
─
━
│
┃
┬
■
□
▣
▪
▫
▲
△
▶
▷
▼
▽
◀
◆
◇
◈
○
◎
●
◞
◟
◡
☀
☁
★
☆
☎
☏
☑
☔
☕
☝
☞
☠
☢
☹
☺
♀
♂
♠
♡
♣
♤
♥
♦
♧
♨
♩
♪
♬
⚠
⚡
⛔
✅
✈
✊
✋
✌
✔
✧
✨
✳
✺
❄
❌
❎
❓
❗
❛
❣
❤
❶
❷
➡
➰
⠀
⫬
⭐
⭕
、
。
〃
〈
〉
《
》
「
」
『
』
【
】
〓
〔
〕
〜
〰
あ
い
う
え
お
か
が
き
く
け
こ
さ
し
す
そ
た
だ
ち
っ
つ
て
で
と
な
に
ぬ
の
は
ま
み
め
も
ゃ
や
よ
ら
り
る
れ
わ
を
ん
ア
ィ
イ
ウ
ェ
カ
キ
ク
グ
ケ
コ
シ
ジ
ス
ソ
タ
チ
ッ
テ
ト
ド
ナ
ニ
ノ
バ
ヒ
フ
ブ
プ
ポ
マ
ミ
ム
メ
ラ
リ
ル
レ
ロ
ン
・
ー
ㄱ
ㄲ
ㄳ
ㄴ
ㄵ
ㄶ
ㄷ
ㄸ
ㄹ
ㄺ
ㄻ
ㄼ
ㄿ
ㅀ
ㅁ
ㅂ
ㅃ
ㅄ
ㅅ
ㅆ
ㅇ
ㅈ
ㅉ
ㅊ
ㅋ
ㅌ
ㅍ
ㅎ
ㅏ
ㅐ
ㅑ
ㅒ
ㅓ
ㅔ
ㅕ
ㅖ
ㅗ
ㅘ
ㅙ
ㅚ
ㅛ
ㅜ
ㅝ
ㅞ
ㅟ
ㅠ
ㅡ
ㅢ
ㅣ
ㅤ
ㆍ
㈎
㈏
㈐
㈑
㈔
㈜
㉠
㉡
㉢
㉣
㉤
㉮
㉯
㉰
㉱
㊗
㎉
㎍
㎎
㎏
㎒
㎓
㎖
㎗
㎘
㎚
㎛
㎜
㎝
㎞
㎠
㎡
㎢
㎥
㎸
㎾
㎿
㏄
㏈
㏊
一
丁
七
丈
三
上
下
不
丑
且
世
丘
丙
丞
中
丸
丹
主
乃
久
之
乎
乘
乙
九
也
乾
亂
了
予
事
二
于
云
互
五
井
亞
亡
交
亥
亦
亨
享
京
亭
人
仁
今
介
仕
他
付
仙
代
令
以
仰
仲
件
任
企
伊
伏
伐
休
会
伯
似
但
位
低
住
佐
何
余
佛
作
佳
使
來
例
侍
供
依
侯
侵
便
係
俊
俗
保
信
修
倂
倉
個
倍
候
借
値
倫
倭
假
偉
停
健
側
偶
備
傭
傳
債
傷
像
僕
僞
僧
價
儀
儒
償
優
允
元
兄
充
兆
先
光
克
免
兒
入
內
全
兩
兪
八
公
六
共
兵
其
具
典
兼
冊
再
冠
冬
凡
凶
出
刀
分
切
刊
刑
列
初
判
別
利
到
制
券
刺
刻
則
前
剛
副
割
創
劃
劇
劉
劍
力
功
加
助
勇
動
務
勝
勞
勢
勤
勳
勸
勿
包
化
北
匠
區
十
千
升
午
半
卑
卒
協
南
博
占
卦
卯
印
危
却
卷
卽
卿
厚
原
去
參
又
及
友
反
叔
取
受
叛
叢
口
古
句
只
召
可
台
史
右
司
各
合
吉
同
名
后
吏
向
君
否
含
吳
吾
呂
告
周
味
呼
命
和
咸
哀
品
哉
員
哲
唐
唯
唱
商
問
啓
善
喜
喪
單
嘉
嘗
器
嚴
四
回
因
固
国
圈
國
圍
園
圓
圖
團
土
在
圭
地
址
均
坊
坐
坡
坤
型
城
域
執
基
堂
堅
堯
報
場
塔
境
墓
增
墨
壁
壇
壓
壤
士
壬
壯
壽
夏
外
多
夜
夢
大
天
太
夫
央
失
夷
奇
奈
奉
奎
奏
契
女
奴
好
如
妃
妄
妓
妙
妻
始
姓
委
姜
姬
姻
威
婚
婢
婦
媛
子
孔
字
存
孝
孟
季
孤
学
孫
學
宇
守
安
宋
完
宗
官
定
宜
客
宣
室
宮
宰
害
家
容
宿
寂
寃
寄
寅
密
富
寒
察
寡
實
寧
審
寫
寬
寶
寺
封
射
將
專
尉
尊
尋
對
導
小
少
尙
就
尹
尺
尼
尾
局
居
屈
屋
展
層
履
屬
山
岐
岡
岩
岳
岸
峯
峰
峴
島
崇
崎
崔
嶺
巖
川
州
巡
工
左
巨
巫
差
己
已
巳
巴
市
布
希
帝
師
席
帳
帶
常
幕
干
平
年
幸
幹
幻
幼
幽
幾
序
底
店
庚
府
度
座
庫
庭
庵
庶
康
庸
廉
廟
廢
廣
廳
延
廷
建
弊
式
弓
引
弗
弘
弟
弱
張
强
弼
彈
彌
形
彦
影
役
彼
往
征
待
律
後
徐
徒
得
從
御
復
微
徵
德
心
必
忌
忍
志
忘
忠
念
怒
思
怠
急
性
怨
怪
恐
恒
恨
恩
恭
息
悟
患
悲
情
惑
惟
惠
惡
惱
想
意
愚
愛
感
愼
慈
態
慕
慣
慧
慮
慶
憂
憲
應
懲
懷
戊
戌
成
我
戒
或
戰
戱
戶
房
所
手
才
打
扶
批
承
技
投
抗
折
抵
押
拒
拘
招
拜
括
持
指
振
捕
授
掌
排
採
接
控
推
措
提
揚
換
揭
援
損
摩
撫
撰
擇
擊
操
擔
據
擧
擬
支
收
改
攻
放
政
故
效
敍
敎
敏
救
敗
敢
散
敦
敬
整
敵
數
文
斗
料
斥
斯
新
斷
方
於
施
旅
族
旗
旣
日
旨
早
昇
昌
明
易
昔
星
映
春
昭
是
時
晉
晋
晩
普
景
智
暗
暴
曆
曉
曰
曲
更
書
曹
曺
曾
最
會
月
有
服
朔
望
朝
期
木
未
末
本
朱
朴
李
材
村
杜
束
東
松
板
林
果
枝
某
染
柱
柳
査
校
株
核
根
格
桂
桃
案
桓
梁
梅
條
棄
森
植
楊
楚
業
極
榮
構
槪
樂
樓
標
樞
模
樣
樹
橋
機
橫
檀
檢
權
次
欲
欺
欽
款
歌
歐
止
正
此
步
武
歲
歷
歸
死
殊
殘
段
殷
殺
殿
毅
母
每
毒
比
毛
氏
民
氣
水
永
求
汝
江
池
決
沈
沒
沙
河
油
治
況
泉
法
波
注
泰
泳
洋
洙
洛
洞
津
洪
洲
活
派
流
浦
浩
浪
浮
海
消
涉
淑
淨
淫
淮
深
淳
淵
混
淸
減
渡
測
港
湖
湯
源
準
溪
溫
滅
滿
漁
演
漢
漸
潤
潮
澤
濟
灣
火
災
炳
烈
烏
焉
無
然
煥
照
煩
熊
熙
熟
熱
燈
燕
營
燮
爭
爲
父
爾
片
版
牛
牧
物
特
犬
犯
狀
狂
猶
獄
獨
獸
獻
玄
率
玉
王
珍
珠
班
現
球
理
琴
瑕
瑞
環
甘
甚
生
産
用
甫
田
由
甲
申
男
町
界
留
略
番
異
畵
當
疏
疑
疵
疾
病
症
痛
癸
登
發
白
百
的
皆
皇
皮
益
盛
盜
盟
盡
監
盤
盧
目
直
相
省
看
眞
眼
着
督
矣
知
短
石
破
硏
碑
碧
確
磁
示
社
祀
祐
祖
祝
神
祠
祥
票
祭
祿
禁
禍
福
禪
禮
禹
秀
私
秉
秋
科
秘
租
秦
秩
移
稅
程
種
稱
稷
稿
穀
穆
積
究
空
窮
立
章
童
端
競
竹
笑
符
第
筆
等
答
策
箕
算
管
節
範
篇
築
簡
簿
籍
米
精
系
紀
約
紅
納
純
紙
級
素
紫
細
終
組
結
給
統
絶
經
綜
綠
維
綱
網
緊
線
緣
編
縣
總
織
繼
續
缺
罪
置
罰
署
羅
羊
美
群
義
羽
翁
習
翰
翼
老
考
者
而
耕
耳
耶
聖
聞
聯
聲
職
聽
肅
肉
肯
育
背
胎
胡
能
脈
脫
腹
臣
臨
自
至
致
臺
與
興
舊
舍
舜
舞
舟
航
般
舶
船
良
色
芝
花
芳
苑
若
苦
英
茂
茶
草
荷
莊
莫
菩
華
萬
落
葉
著
葛
葬
蒙
蓋
蓮
蔡
薄
薩
藏
藝
藤
藥
藩
蘇
蘭
虎
處
虛
虞
號
融
血
衆
行
衍
術
街
衛
衡
衣
表
衰
被
裁
裕
補
裝
裵
製
複
襄
西
要
見
規
視
親
覺
覽
觀
角
解
觸
言
計
討
訓
託
記
訟
訥
訪
設
許
訴
註
詐
評
詞
試
詩
話
誌
認
誘
語
誠
誤
說
課
調
談
請
論
諫
諸
諾
謀
謂
謙
講
謝
證
識
譜
警
譯
議
護
讀
變
讓
谷
豆
豈
豊
象
豪
豫
貞
負
財
貢
貧
貨
販
貪
貫
責
貴
買
貸
費
貿
賀
賃
資
賈
賊
賓
賜
賞
賠
賢
賣
賤
賦
質
賴
贈
贊
赤
走
起
超
越
趙
足
路
蹂
身
車
軍
軒
載
輔
輕
輪
輯
輸
輿
轄
轉
辛
辨
辭
辯
辰
農
迎
近
返
述
追
退
送
逆
途
通
速
造
連
進
逸
遂
遇
遊
運
過
道
達
違
遠
遡
遣
適
遲
遷
選
遺
遼
避
還
邊
邑
那
邦
邪
邱
郎
郞
郡
部
郭
都
鄕
鄭
酉
配
酒
醫
釋
里
重
野
量
金
釜
針
鉉
銀
銅
銘
錄
錢
錦
錫
錯
鍾
鎬
鎭
鏡
鐘
鐵
鑑
鑛
長
門
開
閑
間
閔
閣
闕
關
阪
防
阿
陀
附
降
限
院
陣
除
陰
陳
陵
陶
陸
陽
隆
隊
階
際
障
隨
險
隱
雄
雅
集
雖
雙
雜
離
難
雨
雪
雲
電
需
震
露
靈
靑
靖
靜
非
面
革
韓
音
韻
頂
項
順
須
頌
領
頭
題
額
顔
願
類
顧
顯
風
飛
食
飮
養
餘
館
首
香
馬
駐
騎
驗
驛
骨
體
高
鬪
鬼
魂
魏
魔
魚
魯
鮮
鳥
鳳
鳴
鴻
鶴
鷄
鹽
鹿
麗
麟
麻
黃
黑
默
點
黨
鼎
鼓
齊
齋
齒
齡
龍
龜
꙼
가
각
갂
간
갇
갈
갉
감
갑
값
갓
갔
강
갖
갗
갘
같
갚
갛
개
객
갠
갤
갬
갭
갯
갰
갱
갸
갹
갼
걀
걍
걑
걔
걘
걩
거
걱
건
걷
걸
검
겁
것
겄
겅
겆
겈
겉
겊
겋
게
겍
겐
겔
겜
겝
겟
겠
겡
겤
겧
겨
격
겪
견
결
겸
겹
겻
겼
경
곀
곁
계
곈
곗
곘
고
곡
곤
곧
골
곪
곬
곯
곰
곱
곳
공
곶
곸
곺
곻
과
곽
관
괄
괌
광
괘
괜
괞
괨
괭
괴
괸
굉
교
굔
굣
굥
구
국
군
굳
굴
굵
굶
굻
굼
굽
굿
궁
궂
궃
궄
궈
권
궐
궜
궤
궹
귀
귁
귄
귈
귐
귓
규
귝
균
귣
귤
귯
그
극
근
귿
글
긁
금
급
긋
긍
긎
긑
긔
긕
긧
기
긱
긴
긷
길
긿
김
깁
깃
깄
깅
깆
깈
깉
깊
까
깍
깎
깐
깔
깜
깝
깞
깟
깠
깡
깢
깤
깥
깨
깩
깬
깰
깸
깻
깼
깽
꺄
꺅
꺠
꺼
꺽
꺾
껀
껄
껌
껍
껏
껐
껑
께
껜
껫
껭
껴
꼇
꼈
꼍
꼐
꼬
꼭
꼰
꼴
꼼
꼽
꼿
꽁
꽂
꽃
꽈
꽉
꽌
꽐
꽝
꽤
꽥
꽹
꾀
꾐
꾜
꾸
꾹
꾼
꾿
꿀
꿇
꿈
꿉
꿋
꿍
꿎
꿏
꿔
꿘
꿜
꿧
꿨
꿩
꿰
꿴
뀌
뀐
뀔
뀜
뀝
뀨
끄
끅
끈
끊
끋
끌
끓
끔
끕
끗
끙
끝
끠
끼
끽
낀
낄
낌
낍
낏
낑
나
낙
낚
난
낟
날
낡
남
납
낫
났
낭
낮
낯
낰
낱
낳
내
낵
낸
낼
냄
냅
냇
냈
냉
냐
냑
냔
냘
냠
냣
냥
냨
냬
너
넉
넋
넌
널
넒
넓
넖
넘
넙
넛
넜
넝
넣
네
넥
넨
넫
넬
넴
넵
넷
넸
넹
넼
녀
녁
년
녈
념
녓
녔
녕
녘
녜
노
녹
논
놀
놈
놉
놋
농
놐
높
놓
놔
놧
놨
놯
놰
뇌
뇨
뇬
뇰
뇸
뇽
누
눅
눈
눌
눔
눕
눗
눙
눞
눟
눠
눴
눼
뉘
뉜
뉠
뉨
뉩
뉴
뉸
늄
늉
느
늑
는
늕
늗
늘
늙
늠
늡
늣
능
늦
늧
늨
늪
늫
늬
니
닉
닌
닏
닐
님
닙
닛
닜
닝
닞
닠
닢
다
닥
닦
단
닫
달
닭
닮
닯
닳
담
답
닶
닷
당
닺
닻
닼
닽
닿
대
댁
댄
댈
댐
댑
댓
댔
댕
댘
댜
댱
댸
더
덕
덖
던
덛
덜
덟
덤
덥
덧
덩
덪
덫
덮
덯
데
덱
덴
델
뎀
뎁
뎃
뎄
뎅
뎈
뎌
뎐
뎠
뎡
뎨
뎬
도
독
돈
돋
돌
돔
돕
돗
동
돚
돛
돜
돝
돟
돠
돤
돨
돼
됀
됄
됌
됍
됏
됐
되
된
될
됨
됩
됫
됬
됭
됴
두
둑
둔
둘
둠
둡
둣
둥
둬
둿
뒀
뒈
뒤
뒷
뒹
듀
듁
듄
듈
듐
듕
드
득
든
듣
들
듦
듬
듭
듯
등
듲
듵
듷
듸
딋
디
딕
딘
딛
딜
딤
딥
딧
딨
딩
딪
딫
따
딱
딲
딴
딸
딹
땀
땁
땃
땄
땅
땋
때
땍
땐
땔
땜
땝
땟
땠
땡
땨
떄
떈
떙
떠
떡
떤
떨
떫
떰
떱
떳
떴
떵
떻
떼
떽
뗀
뗄
뗌
뗏
뗐
뗑
뗘
뗴
또
똑
똔
똘
똠
똣
똥
똬
똭
뙇
뙈
뙤
뚜
뚝
뚠
뚤
뚫
뚬
뚯
뚱
뛔
뛰
뛴
뛸
뜀
뜁
뜨
뜩
뜬
뜯
뜰
뜸
뜹
뜽
띁
띄
띈
띌
띔
띕
띠
띡
띤
띨
띱
띵
라
락
란
랃
랄
람
랍
랏
랐
랑
랒
랔
랖
랗
래
랙
랜
랠
램
랩
랫
랬
랭
랰
랴
략
랸
랼
럄
럈
량
럐
러
럭
런
럴
럼
럽
럿
렀
렁
렂
렇
레
렉
렌
렐
렘
렙
렛
렜
렝
려
력
련
렬
렴
렵
렷
렸
령
렿
례
롄
로
록
론
롤
롬
롭
롯
롱
롴
롷
롸
롹
롼
뢀
뢔
뢰
뢴
뢸
룀
료
룐
룔
룡
루
룩
룬
룰
룸
룹
룻
룽
뤄
뤈
뤘
뤠
뤡
뤼
뤽
륀
륄
류
륙
륜
률
륨
륭
르
륵
른
를
름
릅
릇
릉
릎
릏
릐
리
릭
린
릴
림
립
릿
맀
링
맂
맄
맇
마
막
만
맍
많
맏
말
맑
맗
맘
맙
맛
맜
망
맞
맟
맠
맡
맣
매
맥
맨
맬
맴
맵
맷
맸
맹
맺
먀
먄
먈
먐
먕
먜
머
먹
먼
먾
멀
멈
멉
멊
멋
멍
멎
멏
멓
메
멕
멘
멜
멤
멥
멧
멨
멩
며
멱
면
멸
몀
몃
몄
명
몆
몇
몈
몌
모
목
몫
몬
몯
몰
몸
몹
못
몽
몾
뫃
뫄
뫼
묀
묄
묏
묘
묜
묭
무
묵
묶
문
묹
묻
물
묽
뭄
뭅
뭇
뭉
뭍
뭏
뭐
뭔
뭘
뭡
뭣
뭥
뭬
뮈
뮌
뮐
뮛
뮤
뮨
뮬
뮴
므
믁
믄
믈
믐
믓
믕
믜
미
믹
민
믾
믿
밀
밈
밉
밋
밌
밍
밎
및
밑
바
박
밖
반
받
발
밝
밞
밟
밣
밤
밥
밧
밨
방
밪
밬
밭
배
백
밴
밷
밸
뱀
뱁
뱃
뱄
뱅
뱉
뱌
뱍
뱐
뱔
뱡
버
벅
번
벋
벌
범
법
벗
벙
벚
베
벡
벤
벧
벨
벰
벱
벳
벵
벼
벽
변
별
볌
볍
볏
볐
병
볓
볕
볘
볜
보
복
볶
본
볻
볼
봄
봅
봇
봉
봊
봏
봐
봘
봣
봤
봥
봨
봬
뵀
뵈
뵌
뵐
뵙
뵜
뵤
뵨
뵹
부
북
분
붇
불
붉
붐
붑
붓
붕
붙
붜
붸
뷔
뷜
뷩
뷰
뷱
뷴
뷸
븀
븅
브
븍
븐
블
븜
븝
븟
븡
븥
븨
븯
븳
븽
비
빅
빈
빋
빌
빔
빕
빗
빙
빚
빛
빟
빠
빡
빤
빨
빩
빰
빱
빳
빴
빵
빻
빼
빽
뺀
뺃
뺄
뺌
뺍
뺏
뺐
뺑
뺘
뺠
뺨
뺴
뻐
뻑
뻔
뻗
뻘
뻣
뻤
뻥
뻬
뼈
뼉
뼘
뼛
뼝
뽀
뽁
뽂
뽄
뽈
뽐
뽑
뽕
뽜
뽝
뽤
뾰
뾱
뿅
뿉
뿌
뿍
뿐
뿔
뿜
뿝
뿟
뿡
뿨
쀼
쁘
쁜
쁠
쁨
쁩
삐
삑
삔
삘
삣
삥
사
삭
삯
산
살
삵
삶
삻
삼
삽
삿
샀
상
샄
샅
샆
샇
새
색
샊
샋
샌
샏
샐
샘
샙
샛
샜
생
샠
샡
샣
샤
샥
샨
샬
샴
샵
샷
샹
샾
섀
섁
섕
서
석
섞
선
섣
설
섦
섬
섭
섯
섰
성
섲
섴
섶
세
섹
섺
센
셀
셈
셉
셋
셌
셍
셐
셑
셓
셔
셕
션
셜
셤
셧
셨
셩
셰
셱
셴
셸
솅
소
속
솎
손
솓
솔
솜
솝
솟
송
솤
솥
솨
솽
쇄
쇅
쇆
쇠
쇤
쇳
쇼
쇽
숀
숄
숍
숏
숑
수
숙
순
숟
술
숨
숩
숫
숭
숮
숯
숱
숲
숴
숸
숼
쉅
쉈
쉐
쉑
쉒
쉔
쉘
쉣
쉥
쉨
쉬
쉭
쉰
쉴
쉼
쉽
쉿
슁
슈
슉
슌
슐
슘
슙
슛
슝
스
슥
슨
슬
슭
슴
습
슷
승
슺
슼
슾
싀
싄
싑
시
식
신
싢
싣
실
싨
싫
심
십
싯
싰
싱
싲
싳
싴
싶
싷
싸
싹
싼
쌀
쌈
쌉
쌋
쌌
쌍
쌓
쌔
쌕
쌖
쌘
쌤
쌨
쌩
쌰
썅
썌
써
썩
썪
썬
썰
썸
썹
썻
썼
썽
쎀
쎄
쎅
쎈
쎌
쎔
쎕
쎘
쎠
쎼
쏘
쏙
쏜
쏟
쏠
쏨
쏩
쏫
쏭
쏱
쏴
쏵
쐇
쐈
쐐
쐬
쐴
쑈
쑝
쑤
쑥
쑨
쑬
쑴
쑵
쑹
쒀
쒜
쒝
쒸
쒼
쓉
쓔
쓣
쓰
쓱
쓴
쓸
쓽
씀
씁
씅
씌
씐
씝
씠
씨
씩
씬
씰
씸
씹
씻
씼
씽
앂
아
악
안
앉
않
앋
알
앍
앎
앏
앓
암
압
앖
앗
았
앙
앚
앜
앝
앞
앟
애
액
앤
앨
앰
앱
앳
앴
앵
야
약
얀
얄
얆
얇
얊
얌
얍
얏
얐
양
얔
얕
얗
얘
얜
어
억
얶
언
얹
얺
얻
얼
얽
엄
업
없
엇
었
엉
엊
엌
엎
엏
에
엑
엔
엘
엠
엡
엣
엤
엥
엨
여
역
엮
연
엳
열
엷
염
엽
엾
엿
였
영
옄
옅
옆
옇
예
옌
옐
옘
옙
옛
옜
오
옥
온
옫
올
옭
옮
옳
옴
옵
옶
옷
옹
옺
옻
옼
옿
와
왁
완
왈
왐
왑
왓
왔
왕
왘
왜
왝
왠
왤
왱
외
왼
욀
욌
욍
요
욕
욘
욛
욜
욤
욥
욧
용
욪
욬
욭
욮
욯
우
욱
운
욷
울
욹
움
웁
웂
웃
웅
워
웍
원
월
웜
웟
웠
웡
웤
웨
웩
웬
웰
웸
웹
웻
웽
위
윅
윈
윌
윔
윕
윗
윘
윙
유
육
윤
율
윰
윱
윳
융
윷
으
윽
윾
은
읁
읃
을
읇
읊
음
읍
읎
읏
응
읔
읕
읖
읗
의
읜
읭
이
익
읶
인
읹
읺
읻
일
읽
읿
잃
임
입
잆
잇
있
잉
잊
잋
잌
잍
잎
잏
자
작
잔
잖
잗
잘
잚
잛
잠
잡
잣
잤
장
잦
잨
잫
재
잭
잰
잴
잼
잽
잿
쟀
쟁
쟈
쟉
쟌
쟎
쟐
쟙
쟝
쟤
쟨
저
적
전
젇
절
젊
젋
점
접
젓
젔
정
젖
젙
젛
제
젝
젠
젣
젤
젬
젭
젯
젱
져
젹
젼
졀
졋
졌
졍
졎
졓
졔
조
족
존
졷
졸
좀
좁
좃
좄
종
좆
좇
좈
좉
좊
좋
좌
좍
좔
좝
좟
좡
좥
좦
좨
죄
죈
죌
죕
죗
죙
죠
죡
죤
죧
죨
죳
죴
죵
죸
죹
죻
주
죽
준
줄
줌
줍
줏
중
줒
줗
줘
줜
줠
줫
줬
줭
줮
줴
쥐
쥑
쥔
쥘
쥤
쥥
쥬
쥭
쥰
쥴
쥼
즁
즇
즈
즉
즌
즐
즘
즙
즛
증
즣
즤
즨
즹
지
직
진
짆
짇
질
짊
짐
집
짒
짓
징
짖
짗
짘
짙
짚
짛
짜
짝
짠
짢
짤
짦
짧
짬
짭
짯
짰
짱
짴
째
짹
짼
쨈
쨉
쨋
쨌
쨍
쨔
쨘
쨩
쨰
쩌
쩍
쩐
쩔
쩜
쩝
쩡
쩨
쪄
쪕
쪘
쪙
쪼
쪽
쪾
쫀
쫄
쫌
쫍
쫏
쫑
쫒
쫓
쫗
쫘
쫙
쫩
쫭
쬐
쬠
쬬
쭈
쭉
쭌
쭐
쭘
쭙
쭝
쭤
쭵
쮜
쮸
쯔
쯤
쯥
쯧
쯩
쯪
찌
찍
찐
찔
찜
찝
찟
찡
찢
찧
차
착
찬
찮
찰
참
찹
찻
찼
창
찾
찿
챃
채
책
챈
챌
챔
챕
챗
챘
챙
챠
챡
챤
챦
챨
챱
챵
처
척
천
철
첨
첩
첫
첬
청
첮
체
첵
첸
첼
쳄
쳇
쳉
쳐
쳔
쳣
쳤
쳥
쳬
초
촉
촌
촐
촘
촙
촛
총
촞
촟
촣
촤
촥
촨
촬
촵
촹
최
쵝
쵸
쵹
춍
추
축
춘
출
춤
춥
춧
충
춰
춴
췃
췄
췌
취
췬
츄
츈
츌
츙
츠
측
츤
츨
츰
츳
층
츼
칀
치
칙
친
칞
칠
칡
침
칩
칫
칭
칮
칰
카
칵
칸
칼
캄
캅
캇
캉
캍
캐
캑
캔
캘
캠
캡
캣
캤
캥
캬
캭
컄
커
컥
컨
컫
컬
컴
컵
컷
컸
컹
컾
케
켁
켄
켈
켐
켑
켓
켔
켕
켜
켠
켤
켬
켯
켰
켱
켸
코
콕
콘
콜
콤
콥
콧
콩
콰
콱
콴
콸
쾅
쾌
쾡
쾨
쾰
쿄
쿠
쿡
쿤
쿨
쿰
쿱
쿳
쿵
쿸
쿼
퀀
퀄
퀘
퀭
퀴
퀵
퀸
퀼
큅
큐
큘
크
큭
큰
클
큼
큽
큿
킁
킄
킈
키
킥
킨
킬
킴
킵
킷
킹
킼
타
탁
탄
탆
탈
탉
탐
탑
탓
탔
탕
태
택
탠
탤
탬
탭
탯
탰
탱
탸
터
턱
턴
털
텀
텁
텃
텄
텅
텋
테
텍
텐
텔
템
텝
텟
텡
텨
텼
톄
톈
토
톡
톤
톨
톰
톱
톳
통
톼
퇄
퇘
퇫
퇴
툇
툐
툥
투
툭
툰
툴
툼
툽
퉁
퉈
퉜
퉤
퉷
튀
튄
튈
튐
튕
튜
튠
튤
튬
튭
트
특
튼
튿
틀
틈
틉
틋
틍
틑
틔
티
틱
틴
틸
팀
팁
팃
팅
파
팍
팎
판
팔
팜
팝
팟
팠
팡
팥
패
팩
팬
팰
팸
팹
팻
팼
팽
퍄
퍅
퍈
퍠
퍼
퍽
펀
펄
펌
펍
펏
펐
펑
페
펙
펜
펠
펨
펩
펫
펭
펴
편
펼
폄
폈
평
폐
포
폭
폰
폴
폼
폿
퐁
퐈
퐉
퐐
퐝
푀
표
푠
푯
푸
푹
푼
풀
풂
품
풉
풋
풍
퓌
퓨
퓰
퓸
프
픈
플
픔
픕
픙
피
픽
핀
필
핌
핍
핏
핑
하
학
한
핟
할
핡
핣
핥
핧
함
합
핫
핬
항
핮
핰
핱
핳
해
핵
핸
핼
햄
햅
햇
했
행
햌
햏
햐
햑
햔
햘
햝
햣
햤
향
햬
헀
허
헉
헌
헐
험
헙
헛
헝
헠
헣
헤
헥
헨
헬
헴
헵
헷
헸
헹
헿
혀
혁
현
혈
혐
협
혓
혔
형
혜
호
혹
혼
홀
홈
홉
홋
홍
홑
홓
화
확
환
활
홥
홧
황
홰
홱
횃
회
획
횐
횔
횟
횡
효
횬
횽
후
훅
훈
훌
훑
훔
훕
훗
훙
훠
훤
훨
훼
휀
휑
휘
휙
휜
휠
휨
휩
휭
휴
휼
흄
흉
흐
흑
흔
흘
흙
흠
흡
흣
흥
흩
흫
희
흰
히
힉
힌
힐
힘
힙
힛
힝
힣
車
金
羅
亂
勞
盧
老
魯
論
樂
復
不
沈
兩
梁
良
呂
女
歷
年
聯
連
列
烈
靈
領
例
禮
遼
龍
劉
柳
流
留
類
六
陸
律
利
吏
履
李
理
林
臨
立
狀
茶
宅
︎
️
！
＂
＃
＄
％
＆
＇
（
）
＊
＋
，
－
．
／
：
；
＜
＝
＞
？
［
＼
］
＿
ｇ
ｍ
ｔ
｜
～
｡
｢
｣
･
￦
𖤐
🇨
🇯
🇰
🇳
🇵
🇷
🇸
🇹
🇺
🌈
🌊
🌋
🌙
🌚
🌜
🌝
🌞
🌟
🌱
🌳
🌴
🌶
🌷
🌸
🌹
🌺
🌻
🌼
🌿
🍀
🍁
🍂
🍃
🍅
🍆
🍇
🍉
🍊
🍋
🍌
🍎
🍑
🍒
🍓
🍔
🍕
🍖
🍗
🍚
🍜
🍞
🍠
🍦
🍪
🍫
🍭
🍯
🍰
🍲
🍳
🍴
🍺
🍻
🍽
🍾
🎀
🎁
🎂
🎃
🎄
🎆
🎈
🎉
🎊
🎗
🎤
🎧
🎬
🎵
🎶
🏃
🏠
🏻
🏼
🏽
🏾
🏿
🐀
🐂
🐅
🐈
🐍
🐑
🐒
🐓
🐔
🐕
🐖
🐙
🐟
🐣
🐤
🐥
🐦
🐩
🐮
🐯
🐰
🐱
🐴
🐵
🐶
🐷
🐻
🐽
🐾
👀
👄
👅
👆
👇
👈
👉
👊
👋
👌
👍
👎
👏
👑
👣
👤
👥
👦
👧
👨
👩
👫
👯
👴
👶
👹
👺
👻
👼
👽
👿
💀
💃
💋
💎
💐
💑
💓
💕
💖
💗
💘
💙
💚
💛
💜
💝
💞
💟
💢
💣
💥
💦
💧
💨
💩
💪
💫
💯
💰
💸
📌
📍
📖
📚
📢
📣
📷
📸
🔊
🔖
🔜
🔞
🔥
🔨
🔪
🔫
🔴
🔵
🔶
🔸
🔹
🕊
🕯
🖐
🖒
🖕
🖤
🗡
🗣
😀
😁
😂
😃
😄
😅
😆
😇
😈
😉
😊
😋
😌
😍
😎
😏
😐
😑
😒
😓
😔
😖
😗
😘
😙
😚
😛
😜
😝
😞
😠
😡
😢
😣
😤
😥
😧
😨
😩
😪
😫
😬
😭
😮
😰
😱
😲
😳
😴
😵
😶
😷
😻
🙂
🙃
🙄
🙅
🙆
🙇
🙈
🙉
🙊
🙋
🙌
🙏
🚀
🚨
🚩
🚫
🚴
🤍
🤑
🤓
🤔
🤗
🤘
🤟
🤢
🤣
🤤
🤦
🤧
🤨
🤩
🤪
🤬
🤭
🤮
🤯
🤷
🥄
🥐
🥑
🥕
🥖
🥰
🥳
🥶
🥺
🦀
🦅
🧀
🧚
🧡
##t
##e
##l
##p
##h
##a
##n
##s
##d
##ㅏ
##ㅋ
##ㄱ
##거
##네
##태
##때
##폐
##색
##ㅜ
##유
##통
##기
##한
##💫
##일
##문
##슬
##람
##이
##ㄹ
##무
##고
##죄
##로
##떡
##u
##학
##생
##작
##품
##중
##등
##들
##은
##m
##o
##ㅠ
##식
##탁
##리
##템
##포
##당
##방
##송
##큐
##해
##써
##욥
##본
##위
##망
##했
##노
##국
##민
##보
##🏿
##💪
##💙
##r
##f
##ㅊ
##ㅁ
##ㄴ
##ㅇ
##ㆍ
##합
##니
##다
##ㅟ
##분
##점
##과
##우
##어
##루
##푸
##여
##배
##ㅣ
##미
##나
##퍼
##뤼
##프
##또
##찬
##을
##듯
##하
##0
##9
##4
##3
##드
##라
##친
##구
##탈
##목
##적
##성
##책
##임
##찰
##의
##E
##C
##H
##N
##O
##P
##A
##R
##K
##랜
##i
##g
##y
##변
##경
##희
##リ
##ィ
##7
##8
##2
##6
##남
##낭
##야
##1
##롤
##영
##러
##시
##아
##랑
##스
##용
##는
##것
##같
##넹
##ㅡ
##b
##T
##J
##X
##와
##q
##씨
##도
##B
##L
##W
##오
##으
##제
##교
##い
##う
##こ
##と
##に
##つ
##て
##엄
##마
##가
##주
##에
##만
##혁
##v
##피
##퓌
##추
##공
##정
##역
##ㅉ
##탕
##지
##사
##끼
##비
##장
##애
##부
##산
##대
##인
##천
##전
##광
##충
##참
##I
##c
##냐
##U
##F
##🔥
##깨
##빼
##박
##😊
##🌹
##반
##ㅈ
##소
##바
##개
##발
##케
##팅
##새
##키
##회
##벤
##처
##캐
##털
##신
##카
##험
##얇
##붙
##옷
##ㄷ
##ㅍ
##ㅎ
##ㅅ
##ㅂ
##ㅌ
##월
##딪
##랃
##룽
##트
##타
##토
##모
##떨
##겠
##까
##커
##w
##궈
##런
##럼
##k
##략
##재
##록
##웰
##평
##조
##불
##뿐
##너
##저
##ㅓ
##더
##ㅐ
##내
##ㅔ
##쩌
##덛
##M
##관
##첨
##단
##업
##켈
##세
##르
##면
##잔
##상
##수
##베
##옹
##풀
##딱
##클
##란
##잇
##서
##5
##레
##혼
##자
##규
##플
##틱
##벼
##놈
##른
##끈
##할
##브
##겨
##울
##싹
##블
##럭
##알
##룐
##쳐
##종
##섭
##악
##ㅆ
##호
##끔
##ア
##ル
##ド
##외
##요
##얀
##Y
##쉬
##S
##령
##눈
##썹
##데
##j
##x
##곳
##며
##렁
##돟
##채
##엉
##터
##계
##균
##크
##ㄶ
##뜨
##련
##댓
##글
##삭
##곸
##히
##벌
##느
##ᆞ
##깃
##버
##선
##물
##었
##효
##심
##운
##온
##김
##황
##환
##려
##걸
##게
##달
##안
##봉
##돼
##음
##되
##길
##약
##철
##진
##💜
##렌
##티
##깐
##ㅑ
##랸
##근
##í
##머
##디
##습
##돠
##🍔
##😳
##흐
##억
##래
##ㅗ
##먜
##ㄸ
##칼
##뮈
##먹
##각
##받
##볼
##파
##ς
##측
##형
##빗
##헤
##쉔
##융
##초
##텨
##패
##뮬
##촉
##감
##속
##옄
##치
##존
##슨
##항
##력
##쩍
##ㅕ
##톡
##ㄿ
##풍
##웅
##짓
##택
##원
##몽
##엏
##허
##잏
##ᆢ
##퓨
##땟
##따
##션
##😁
##름
##화
##츈
##급
##매
##못
##닐
##섹
##판
##입
##싄
##살
##궁
##를
##핀
##셋
##즘
##틴
##퐐
##섶
##휴
##ㅛ
##슈
##츄
##셔
##행
##님
##께
##두
##쫀
##득
##닥
##빨
##극
##그
##강
##동
##댜
##ل
##و
##춤
##코
##뽀
##십
##껄
##져
##린
##닷
##컴
##함
##ㅀ
##연
##넘
##좋
##승
##찜
##꽉
##쪼
##않
##ь
##체
##쟈
##랴
##z
##설
##명
##튼
##든
##투
##갓
##넉
##삿
##줄
##았
##갱
##획
##뢰
##팔
##윤
##쁩
##손
##확
##질
##창
##😂
##👍
##🏻
##읏
##흘
##농
##짘
##짇
##쨔
##🎗
##테
##차
##🇷
##ㄳ
##핰
##숙
##큰
##혜
##건
##준
##군
##👽
##💀
##깔
##찻
##댔
##청
##놀
##예
##징
##뉴
##ä
##벽
##빠
##🙌
##죽
##솥
##ㄻ
##잉
##침
##밀
##귀
##옥
##메
##현
##컬
##집
##잘
##눅
##숭
##찮
##액
##됏
##G
##킨
##냇
##빛
##킁
##싶
##🏽
##🧡
##ㄲ
##낌
##혀
##년
##실
##병
##북
##삼
##앙
##녕
##늘
##😍
##😘
##흑
##뀐
##취
##졸
##쇠
##쿠
##료
##켜
##튜
##캬
##므
##뭄
##순
##즈
##젠
##간
##직
##덥
##술
##Z
##햇
##후
##맞
##빙
##젖
##힌
##○
##²
##쩝
##축
##켓
##객
##쭉
##렸
##특
##맛
##탱
##랙
##😭
##엣
##D
##き
##ら
##ん
##결
##앞
##응
##워
##뻔
##쓰
##향
##류
##🙃
##🙂
##난
##양
##횡
##깊
##잡
##담
##쾌
##락
##쩜
##쥬
##쇼
##골
##닌
##론
##편
##긱
##긋
##릭
##ᄋ
##림
##델
##링
##푠
##꺼
##착
##찡
##힝
##렇
##킹
##표
##척
##괴
##햬
##떄
##릉
##맹
##왕
##높
##ナ
##왈
##쑈
##필
##된
##좌
##흥
##독
##증
##곡
##훈
##휘
##법
##말
##똥
##댱
##없
##있
##날
##헬
##💰
##🐶
##🐷
##🐒
##🐵
##곰
##족
##쌕
##복
##긍
##싸
##엔
##뮤
##석
##퀘
##완
##듀
##🍃
##률
##언
##춘
##암
##둥
##퀴
##겡
##량
##딧
##싣
##꾸
##누
##홋
##🐕
##백
##샤
##💚
##🤩
##쁜
##쎄
##좀
##옺
##잗
##τ
##δ
##ι
##ο
##ν
##핏
##쯔
##믜
##믄
##츰
##즌
##늪
##쑝
##죠
##떼
##샜
##헌
##늬
##출
##갑
##층
##탄
##겔
##곱
##렀
##힙
##깡
##녀
##넌
##젛
##굿
##샵
##П
##б
##얼
##롭
##갈
##닏
##뎌
##쫌
##금
##익
##압
##🇵
##💩
##🐔
##챠
##널
##넷
##홍
##핑
##염
##겹
##륭
##р
##о
##в
##е
##н
##ы
##х
##や
##お
##활
##꿩
##봐
##ㄺ
##능
##힐
##육
##💕
##V
##⅔
##값
##줘
##뺑
##훼
##챃
##턴
##л
##🤨
##🔊
##△
##딛
##앟
##졌
##걍
##먼
##뭉
##번
##ö
##엌
##논
##륜
##뻐
##촌
##별
##だ
##줴
##쥐
##던
##펠
##념
##움
##쁘
##뫼
##👏
##뇬
##さ
##ち
##욯
##낑
##땀
##뺐
##â
##혔
##컨
##읍
##쟎
##립
##냉
##섯
##돌
##욧
##れ
##た
##か
##ニ
##ー
##욪
##칸
##ㅚ
##헐
##뀌
##쓸
##랄
##🤣
##햐
##댑
##젤
##돈
##올
##ü
##텐
##열
##덕
##🇰
##🇯
##🇨
##🇳
##검
##븯
##は
##り
##к
##у
##п
##쉨
##맘
##벨
##맥
##꿔
##납
##힘
##🤪
##😜
##묘
##츠
##례
##절
##렴
##ㄵ
##깝
##κ
##μ
##봇
##폭
##몰
##랐
##얔
##뎅
##🥑
##헉
##🐀
##🐣
##릿
##찌
##뭐
##쉐
##é
##줌
##폰
##녹
##츌
##율
##뇨
##및
##뷰
##툇
##많
##랬
##떠
##겁
##짜
##띠
##권
##Q
##봥
##였
##젇
##킴
##뻥
##럴
##빡
##됐
##멏
##협
##됫
##둑
##ᴇ
##흔
##둔
##ン
##プ
##バ
##긴
##둘
##뜩
##し
##늉
##쓴
##낯
##귄
##넣
##범
##폴
##총
##콜
##븳
##쪽
##앜
##멘
##뼈
##곤
##좃
##놓
##될
##졓
##페
##욘
##첮
##즙
##렘
##웨
##꼭
##렝
##🎉
##🍺
##왓
##갗
##숑
##랼
##あ
##ま
##な
##맑
##늠
##옼
##빟
##텅
##る
##끄
##럽
##격
##끓
##텀
##️
##끗
##😛
##럄
##🍎
##셍
##센
##붕
##녜
##잠
##멸
##т
##ц
##땁
##칠
##빋
##냄
##륵
##괞
##쌍
##싱
##싯
##쟁
##갸
##탐
##눔
##с
##м
##ㅝ
##눌
##캡
##빵
##갔
##칭
##롱
##찾
##＋
##팡
##꾼
##훠
##봄
##뵈
##😨
##븟
##팜
##넛
##멍
##왜
##챦
##🥰
##콧
##샹
##😉
##엥
##설명
##밧
##닠
##엇
##몬
##ᴱ
##슘
##왐
##뜯
##ラ
##쿄
##á
##팀
##숩
##뉘
##👴
##┃
##틀
##ε
##퇴
##ㅙ
##몸
##😆
##짖
##뇌
##콩
##슴
##팩
##냣
##렐
##꼬
##접
##и
##а
##겟
##탸
##몾
##샛
##덜
##ㅞ
##펴
##쵸
##マ
##꾿
##났
##탉
##막
##녁
##뿅
##빈
##🌱
##홀
##퍄
##샌
##옻
##샀
##👹
##😈
##👿
##😡
##😠
##넝
##최
##⅓
##룩
##냨
##쇽
##쏘
##굳
##눙
##닞
##됩
##쉽
##텔
##촬
##칙
##ㅃ
##킷
##뼛
##닼
##냈
##눠
##듬
##샷
##룡
##🍁
##🍂
##쿤
##봤
##좝
##싷
##셩
##킬
##뜸
##랰
##🌺
##🌻
##큿
##됴
##룬
##냑
##🍻
##깜
##닭
##😤
##젝
##믹
##쯤
##딸
##넴
##답
##늡
##딘
##🐴
##닉
##즉
##ᴏ
##딩
##ш
##г
##뱌
##땅
##얌
##🖤
##끠
##렂
##멀
##ж
##넼
##흠
##욕
##텝
##💋
##좆
##윙
##렬
##퓰
##💖
##잖
##😄
##줬
##🌙
##ᴀ
##💯
##샥
##з
##돚
##샘
##댸
##째
##쟤
##퍠
##쨰
##갰
##쨩
##쎈
##톤
##팁
##햑
##픽
##틸
##왑
##🌚
##갹
##봅
##얗
##뱅
##ᅡ
##ᄉ
##뇸
##🦅
##🍜
##잼
##끝
##륨
##듐
##귣
##륀
##얘
##볶
##흄
##쟝
##흉
##짐
##🙆
##갤
##낼
##찍
##헣
##홓
##솔
##⑦
##③
##⑥
##램
##👫
##툐
##싫
##굴
##죙
##줍
##툽
##슙
##샴
##쿡
##즁
##돋
##낫
##튕
##🐦
##빕
##🍭
##🌈
##🌸
##앚
##랏
##🌷
##뎈
##헠
##혈
##ㅢ
##싀
##믕
##릎
##쭝
##쉰
##렵
##😎
##덧
##🐓
##🤗
##꽁
##낸
##슥
##앗
##옫
##찿
##톱
##덤
##쒼
##💝
##썌
##🌶
##빅
##θ
##ω
##탑
##밥
##늣
##🤷
##쉑
##넓
##🏼
##뇽
##꽈
##🍦
##쏟
##껴
##킈
##똘
##쩡
##츤
##웃
##꼼
##😣
##😞
##빤
##옵
##̵
##̴
##̷
##͈
##🍌
##뒤
##핳
##둣
##쭵
##벡
##っ
##も
##닿
##벚
##쉴
##칵
##뽄
##👌
##쟉
##욱
##🍽
##ス
##븡
##뭇
##ゃ
##콘
##둬
##뢔
##쿵
##💃
##😱
##ρ
##ㅘ
##냥
##앰
##젼
##짤
##뒷
##욤
##😏
##먀
##먄
##헝
##밋
##엳
##긑
##🌊
##💨
##엘
##첸
##й
##ク
##츨
##윗
##윈
##롯
##룹
##잦
##켄
##밍
##릴
##겸
##셀
##쎠
##낳
##🐖
##켰
##뉸
##벗
##엨
##숨
##밖
##갠
##닙
##멜
##🖕
##갇
##칰
##읔
##팍
##ó
##벙
##🔪
##씬
##맨
##💓
##븐
##🤦
##탠
##🌴
##웡
##🤬
##😐
##핸
##봣
##롬
##ᄃ
##ᄀ
##싲
##ю
##す
##벅
##깥
##묵
##🥐
##싢
##👑
##ᴬ
##💞
##덴
##💗
##죈
##떫
##싼
##팬
##캔
##딴
##컵
##😙
##😚
##겼
##쎅
##꺄
##햤
##꼴
##뿟
##즤
##갖
##🐯
##잃
##렷
##땡
##я
##짱
##맄
##묻
##윽
##뎡
##힛
##펩
##썽
##🍇
##🍑
##🍉
##웠
##밎
##쌀
##뽑
##샡
##흣
##혹
##붸
##쇄
##멋
##훙
##▼
##쭈
##뚜
##봏
##낀
##녓
##ᆡ
##빚
##갚
##혐
##늄
##📌
##📍
##꽃
##댄
##👥
##👤
##🌟
##ᄂ
##견
##짝
##け
##앉
##슐
##쳤
##쑤
##뤠
##쐐
##찢
##슝
##뤄
##짠
##💥
##🔫
##뚠
##💛
##꼇
##숴
##얹
##쨌
##깍
##댈
##넨
##틈
##딜
##럿
##앤
##엠
##옴
##껍
##꾹
##렉
##뿌
##덩
##샊
##🌿
##🎁
##ッ
##🤮
##イ
##멩
##왔
##읗
##떻
##д
##셰
##🍆
##🐤
##홈
##첼
##뭥
##녔
##を
##쳣
##슷
##둡
##롷
##쫓
##퓸
##맍
##チ
##즐
##😋
##ч
##く
##わ
##눼
##ケ
##ノ
##フ
##シ
##ム
##핟
##껀
##랍
##😃
##늑
##븍
##펑
##컹
##믿
##팽
##펀
##챱
##씁
##엽
##줭
##놔
##🙉
##🙊
##🙈
##ᆫ
##셨
##ا
##궐
##꿇
##땜
##낙
##몃
##😗
##챙
##🙏
##😌
##옆
##멈
##😖
##😧
##둠
##룸
##꿀
##첩
##툴
##햌
##썩
##륙
##밸
##꽝
##👉
##🚫
##늗
##텍
##껏
##밝
##졋
##👋
##ā
##릇
##퉷
##똑
##😬
##コ
##앵
##횐
##풉
##흙
##で
##괄
##갯
##の
##쥘
##펌
##훗
##붓
##빌
##🥄
##뱔
##죵
##🎶
##쮸
##숯
##떱
##🐱
##짭
##늦
##👎
##튿
##돔
##섀
##꿘
##쒸
##뢀
##햄
##캉
##릐
##꾀
##읻
##펄
##걷
##쿨
##뀨
##엑
##콕
##찝
##Ⅲ
##잎
##넒
##핵
##ㅖ
##씌
##넥
##쌓
##🔞
##🙅
##낟
##🍊
##잊
##∼
##룰
##뜰
##듸
##돜
##¹
##픈
##놨
##맸
##푼
##걱
##툥
##뗏
##욜
##솨
##냔
##떈
##볍
##꼈
##곺
##삐
##💐
##섺
##뽐
##헹
##롼
##돗
##닛
##딕
##좦
##톰
##🍓
##🍰
##♥
##✌
##앱
##햅
##뺘
##꼰
##겤
##탭
##🌼
##쏴
##💸
##렿
##꼽
##🥺
##グ
##🤭
##펐
##쁨
##퐁
##괜
##닝
##쁠
##촵
##낚
##죳
##숮
##쌌
##웤
##🐾
##췌
##궤
##👆
##😝
##🤤
##슺
##ト
##ウ
##찐
##늨
##🕯
##놋
##짯
##뭏
##🇺
##즇
##늫
##맏
##끊
##벵
##̣
##̩
##긎
##🐮
##훅
##è
##α
##λ
##γ
##π
##뽕
##쫄
##춰
##맴
##퀸
##씩
##ᄒ
##엿
##햏
##솟
##걀
##햔
##얻
##읎
##썸
##👇
##첫
##삥
##😲
##メ
##キ
##뭘
##눟
##💦
##よ
##믓
##븅
##쉼
##💟
##랭
##굽
##읽
##엊
##셉
##😪
##😥
##😰
##쨘
##💣
##웬
##쥔
##❌
##❎
##밨
##밑
##롸
##껑
##횬
##샠
##｜
##🗡
##😮
##슛
##팥
##👊
##섬
##넬
##솝
##👦
##빱
##샨
##낮
##눞
##폄
##🤧
##😷
##タ
##얄
##튀
##🙇
##듄
##뮨
##훤
##짗
##펜
##÷
##뱀
##쾡
##👶
##넋
##푹
##퉤
##쟌
##😵
##뚯
##🇸
##쳔
##곽
##팟
##뚤
##늙
##긁
##귿
##큼
##뻬
##툼
##뭍
##낰
##밌
##🤓
##맙
##뚱
##솜
##쵹
##촹
##돨
##잋
##쩔
##뛔
##샋
##넙
##죻
##멕
##잿
##쑵
##됨
##랖
##レ
##ブ
##섰
##옘
##쌩
##뭔
##옇
##콤
##돤
##톼
##🤟
##챡
##얏
##ㄼ
##봊
##븝
##핫
##떳
##촤
##켔
##웩
##퉁
##굵
##퐝
##쓣
##촞
##꽂
##랗
##쫭
##🍋
##웜
##칩
##겐
##햘
##🥶
##쪕
##밤
##밪
##댕
##솓
##땐
##꿰
##겄
##㈐
##긔
##켠
##겧
##셐
##С
##К
##à
##껭
##🥕
##툰
##켱
##ⓐ
##ⓒ
##ⓓ
##굼
##꿈
##숫
##🤔
##챤
##듣
##뜬
##깻
##🍫
##윰
##숄
##갭
##맂
##ソ
##픔
##핍
##샬
##깟
##뢴
##엡
##뒈
##룀
##퀀
##몇
##🔨
##탓
##몌
##콰
##🎂
##킄
##삶
##갉
##잣
##🍖
##볻
##쫑
##옌
##뎐
##뼝
##흰
##썬
##졔
##샇
##♡
##☆
##퇄
##😶
##씀
##랩
##꼐
##붐
##흫
##뺴
##짢
##렛
##셜
##횟
##👩
##챘
##М
##И
##홥
##☺
##챗
##붑
##🍚
##젓
##쏙
##쥭
##밴
##띵
##뉜
##욬
##쌈
##븽
##🐥
##빰
##Р
##줒
##슼
##돝
##샙
##😀
##녈
##🍪
##믈
##닢
##🎊
##🥳
##뽤
##읖
##띨
##ロ
##ポ
##🎃
##🎈
##👻
##껌
##탯
##듵
##🚨
##탆
##밈
##줏
##챈
##밭
##븨
##촟
##셧
##😻
##셈
##◡
##●
##켯
##🎆
##①
##②
##왠
##즛
##쯧
##み
##씻
##🎤
##옿
##💘
##젊
##펫
##텟
##핼
##😢
##볏
##ㅄ
##슉
##쇅
##쥴
##줗
##딲
##쌔
##そ
##묶
##삯
##🙄
##츙
##봘
##괨
##쑥
##틑
##덟
##짧
##밣
##휠
##땍
##곧
##촨
##끌
##テ
##갛
##🚴
##닦
##캄
##굉
##👨
##윷
##ç
##웁
##냅
##뒀
##칫
##덱
##깉
##읁
##듭
##ジ
##깅
##🍴
##몫
##젣
##꽌
##뮴
##🏃
##헿
##벳
##얕
##똬
##땃
##곗
##붇
##췬
##😇
##쑨
##굶
##셴
##낍
##놰
##😫
##몆
##삽
##놐
##띤
##떤
##젱
##꺽
##헛
##🎀
##뾱
##냠
##꺠
##톈
##⛔
##윅
##씹
##녘
##긷
##깽
##쒜
##숍
##귝
##뎀
##🙋
##훔
##겍
##🖐
##🌞
##쉣
##흡
##닫
##밉
##뽁
##킼
##캘
##📸
##릏
##늧
##㈜
##빔
##욛
##쳥
##뜽
##カ
##꿍
##괘
##텋
##˘
##́
##̀
##쏭
##펼
##끙
##🌳
##🍞
##ミ
##옐
##뿔
##잨
##팝
##혓
##☔
##훌
##멎
##겻
##햣
##쿼
##챵
##썼
##잌
##걔
##죡
##★
##닺
##뺨
##😅
##짚
##쿸
##풋
##잭
##찧
##믁
##셕
##멧
##웹
##が
##겅
##맷
##샣
##짊
##촣
##´
##댁
##앨
##샄
##죌
##밟
##홉
##ヒ
##🍳
##🧀
##잛
##쓽
##괭
##👺
##챌
##А
##В
##뻑
##빳
##깠
##텁
##쓱
##핱
##쭤
##귯
##겜
##폼
##슌
##め
##×
##캭
##♩
##캣
##롴
##엎
##딫
##죤
##😔
##뽝
##퉜
##쉭
##퀄
##묭
##쌤
##🐟
##🔵
##왤
##맺
##졍
##랠
##컥
##갘
##헙
##톨
##え
##뵤
##쭐
##퀵
##딥
##🍗
##🍕
##뚫
##🔴
##뷸
##핮
##틍
##땠
##닮
##뿜
##츼
##찔
##뎨
##헥
##폿
##턱
##앋
##흩
##덯
##럐
##볘
##릅
##좇
##쫒
##👀
##σ
##썰
##¤
##🍀
##컷
##웟
##칞
##죧
##쿳
##❗
##킥
##헨
##붜
##맣
##퍽
##퇘
##🤯
##Ⅰ
##닯
##랫
##찟
##잴
##묽
##뱡
##맇
##휭
##됬
##쵝
##🐙
##쾅
##🐩
##🐂
##🐈
##쾨
##쟙
##겆
##뺏
##밞
##듦
##앎
##묜
##몀
##🍲
##⒜
##▽
##끕
##줫
##옮
##쨍
##렙
##떽
##퍅
##듁
##먕
##꾜
##텃
##맵
##젯
##읹
##땨
##💎
##👈
##🤢
##섣
##똔
##핥
##췃
##샐
##ㅒ
##쏜
##랒
##㉤
##㉢
##㉣
##ᅵ
##귤
##🏾
##뗘
##옅
##✨
##＝
##볕
##뱃
##😩
##☎
##앝
##퉈
##촛
##냘
##뺄
##냬
##굣
##랔
##뱍
##헵
##쟨
##겋
##🇹
##쇆
##ㅤ
##짒
##왘
##멓
##삘
##튭
##ェ
##걩
##벰
##펨
##믐
##ぬ
##좁
##🎄
##🕊
##긧
##맟
##삔
##곈
##컾
##꺾
##🐻
##섲
##짹
##듲
##곶
##낱
##쬐
##읃
##뿉
##쬬
##뻘
##닳
##쒝
##캠
##🎵
##춥
##🍒
##벋
##좡
##몹
##쫩
##🚀
##촘
##컸
##🤍
##숏
##쌉
##댘
##₂
##캍
##❤
##봨
##썻
##켸
##왁
##쨉
##핌
##켤
##겈
##왼
##펙
##셱
##숀
##겉
##깤
##👅
##읊
##쑴
##첬
##횽
##깆
##똭
##쉿
##잍
##숸
##됀
##듷
##̶
##젭
##✔
##졷
##옛
##🤑
##🎬
##쓔
##룻
##큽
##⚠
##땝
##꽤
##퀼
##섦
##궹
##▲
##뼉
##떵
##졀
##낵
##쉒
##쪄
##힣
##±
##찼
##잤
##홰
##칮
##뮌
##캥
##씸
##👧
##뻤
##켕
##잚
##헴
##♣
##궃
##욷
##ⅰ
##🌋
##뎁
##촐
##튠
##빻
##덪
##넫
##━
##챔
##😴
##숲
##셓
##뛰
##겊
##쌰
##튬
##씠
##헷
##듕
##홧
##쓉
##샏
##밷
##뱁
##🤘
##🐽
##숟
##€
##£
##■
##□
##°
##찹
##좊
##놉
##씐
##돕
##쥰
##앓
##뎃
##쩐
##훑
##뗴
##뷔
##윱
##뿨
##뿍
##휼
##🐍
##탤
##🍅
##욍
##앳
##쌘
##놧
##🦀
##밬
##긕
##닽
##늕
##륄
##❓
##섞
##좔
##솤
##덮
##낏
##🐰
##귓
##갬
##̥
##싴
##훨
##깈
##읺
##팃
##뺀
##붉
##푀
##뺃
##뽈
##β
##펭
##얺
##슁
##낄
##렜
##🔜
##홑
##얽
##걑
##팰
##븜
##롹
##🗣
##섁
##깁
##퍈
##욹
##뜀
##얍
##틋
##🌜
##뫃
##굔
##̈
##㉮
##욀
##핬
##옭
##팸
##뵹
##↓
##캑
##귈
##힉
##🥖
##읜
##즨
##🏠
##젹
##첵
##깬
##컄
##☢
##멤
##😒
##맡
##곀
##뽜
##벧
##♤
##♧
##짛
##ⅱ
##깼
##쿰
##짼
##춧
##캅
##㈏
##큭
##⚡
##멱
##뺠
##쎼
##쨋
##곻
##🍯
##👼
##깄
##칀
##📖
##뵙
##텄
##뚝
##뗄
##↘
##꿜
##셤
##뷱
##넵
##🚩
##쉈
##④
##⑤
##❄
##❣
##욮
##괌
##섴
##댐
##Ⅳ
##잫
##ｍ
##젔
##팎
##뎄
##♨
##◆
##탔
##갼
##먈
##윾
##뫄
##퐈
##😑
##깎
##＞
##＜
##뱉
##킵
##쇤
##깰
##딤
##뿡
##곁
##뷩
##🔖
##쫘
##윌
##뻣
##껜
##덫
##→
##뮐
##짴
##😓
##빽
##얜
##뗐
##텼
##뷴
##💢
##👣
##궄
##췄
##쯪
##푯
##뉨
##됌
##큘
##뎠
##쀼
##띡
##썪
##쥥
##📢
##딹
##꿨
##쒀
##괸
##쎀
##🔹
##🔸
##▷
##쌋
##🍾
##뿝
##싑
##싰
##쉥
##쎔
##◀
##툭
##쨈
##횃
##ｔ
##훕
##│
##쪘
##좨
##팠
##쳉
##빩
##≫
##팻
##🌝
##죗
##◇
##퇫
##긿
##씽
##🐅
##⑨
##⑩
##⑪
##↔
##쩨
##즣
##눗
##좉
##졎
##👯
##🧚
##⋅
##쫙
##핡
##띱
##좥
##넜
##읕
##̤
##̫
##쳬
##귐
##톄
##쭙
##숱
##옙
##쫏
##쥑
##쭌
##뭬
##썅
##ʕ
##짬
##죹
##짆
##튤
##쐬
##읶
##꽹
##뗌
##듈
##윳
##ღ
##☞
##📚
##욭
##쪾
##⑧
##묹
##㉯
##㉱
##돛
##햝
##🔶
##앴
##쉘
##룔
##맠
##⭐
##☠
##봬
##샅
##쯩
##븀
##띄
##씅
##♀
##♂
##🐑
##뚬
##챨
##엮
##탬
##⠀
##웍
##펏
##ʔ
##슾
##껐
##쭘
##옳
##몯
##Ⅱ
##눕
##∑
##롄
##📷
##춴
##잰
##멥
##짙
##펍
##📣
##̆
##떰
##끽
##켐
##벱
##촙
##￦
##쳄
##☝
##곘
##얊
##뇰
##닜
##꿉
##텡
##♪
##뤡
##🖒
##🎧
##꽥
##콥
##굥
##앍
##헸
##짰
##삑
##옶
##젋
##ː
##꽐
##⑶
##귁
##΄
##맀
##닶
##몈
##쮜
##씰
##톳
##³
##볌
##☕
##얶
##엷
##뭣
##싳
##캇
##똠
##껫
##딨
##뗀
##꿎
##＄
##줠
##뙤
##먐
##샾
##⊙
##츳
##븥
##땔
##쳇
##궂
##젙
##뜹
##띁
##꼿
##좟
##ᴗ
##끅
##®
##휙
##⑸
##쏠
##셸
##꿧
##퐉
##얆
##쥼
##쟐
##좄
##먾
##핧
##멉
##팹
##잽
##궜
##♬
##꿏
##👄
##줜
##⒝
##∗
##뀜
##뒹
##๑
##읭
##볓
##뎬
##뾰
##뤽
##쫍
##▫
##꿋
##슭
##컫
##🍠
##풂
##뛴
##튄
##㎝
##싨
##겪
##쑬
##됭
##뭅
##삣
##앖
##맬
##℃
##↑
##뺍
##✋
##✊
##윕
##쪙
##뺌
##닻
##휩
##땋
##죸
##☁
##굻
##ෆ
##폈
##옜
##◟
##좍
##씝
##뀔
##틔
##½
##뤈
##좈
##곪
##～
##픕
##잆
##칡
##볐
##㊗
##̎
##뱐
##⑵
##윘
##₩
##∠
##💧
##⫬
##웸
##♠
##☀
##ั
##̑
##쾰
##켁
##뢸
##ｇ
##솅
##˂
##쌖
##촥
##윔
##쿱
##뵌
##틉
##➡
##낡
##홱
##죨
##Δ
##섕
##솽
##즹
##뵜
##휜
##겝
##₁
##٩
##앂
##묀
##㎡
##✅
##콸
##넸
##떴
##͡
##◎
##뮛
##멊
##묄
##㎠
##쑹
##앏
##둿
##픙
##♦
##럈
##됄
##빴
##엤
##Ⅴ
##☏
##㉠
##떙
##볜
##샆
##˙
##〓
##㏄
##믾
##쎕
##땄
##셑
##뵨
##솎
##쉅
##뙈
##˃
##💑
##얐
##쏵
##젬
##뗑
##▶
##맜
##왝
##춍
##─
##▪
##➰
##✳
##쏨
##튐
##뤘
##걘
##콱
##™
##웽
##쏫
##뛸
##✈
##❛
##˝
##깸
##줮
##챕
##㏊
##쌨
##쫗
##읇
##핣
##깞
##셌
##뻗
##딋
##엾
##띌
##웂
##⑬
##⭕
##◈
##켬
##˚
##횔
##놯
##☹
##⑫
##⑭
##끋
##⁴
##꺅
##큅
##곯
##̐
##뙇
##㉡
##쐇
##뼘
##뭡
##헀
##뽂
##㈑
##쏱
##뵐
##쇳
##㎚
##삻
##←
##퀭
##쎘
##곬
##콴
##욌
##맗
##띔
##똣
##몄
##㉰
##왱
##쯥
##┬
##↙
##덖
##휀
##뉠
##ⓑ
##㎒
##쥤
##휨
##≪
##갂
##캤
##눴
##휑
##︎
##◞
##㈎
##뷜
##깢
##✧
##씼
##읿
##팼
##뉩
##쎌
##㎎
##깩
##∙
##켑
##쬠
##멨
##㎍
##̊
##쏩
##짦
##숼
##웻
##☑
##⑷
##㎞
##㎏
##̄
##ℓ
##㎖
##묏
##됍
##⑴
##㎜
##죴
##⇒
##㈔
##㎥
##띈
##넖
##죕
##쟀
##✺
##탰
##❶
##❷
##▣
##𖤐
##삵
##쐈
##꿴
##뱄
##뀝
##쐴
##꼍
##−
##뵀
##∥
##튈
으로
에서
##니다
는데
한다
네요
습니다
아요
사람
아니
어요
##00
지만
ㅋㅋ
라고
까지
에게
합니다
생각
다고
우리
면서
보다
다는
너무
해서
대한
국민
나라
배송
라는
한국
된다
20
그러
때문
으면
해야
부터
사용
이나
입니다
이런
어서
일본
문제
구매
위해
지금
아이
중국
하나
지난
그런
정부
대통
그리
대통령
##렇게
만족
그래
다른
가격
사이
10
많이
제품
19
진짜
이상
미국
만들
정도
경제
인데
처럼
시간
세요
지역
정치
정말
가지
사회
이제
기업
경우
그리고
자신
ㅋㅋㅋ
아서
민주
필요
사실
들어
201
사업
그냥
대해
북한
다가
따라
이번
해요
는지
서울
시장
문재
가능
감사
빠르
200
국가
마음
다시
인간
대표
는다
세계
통해
아주
관계
##니까
모르
함께
아직
아닌
모두
시작
##대로
ㅎㅎ
다음
도록
가장
교육
경기
한테
소리
없이
조사
같이
지원
아무
그렇
##지만
문재인
##주의
보이
이렇게
나오
자기
상황
해라
프로
정신
조국
정권
어야
여기
모든
시키
어떻
이유
위한
더라
관련
그러나
위원
니까
의원
거나
려고
상품
바로
하지만
저렴
계속
처음
기사
인가
어떤
사건
해도
12
주문
검찰
여자
사이즈
괜찮
이용
이미
라도
이후
최고
연구
결과
운동
회사
역시
인지
30
민주당
조금
무슨
투자
##민국
밝혔
얼마
대한민국
그래서
못하
11
그것
돌아
대학
100
문화
조선
자유
다면
수준
이야
어떻게
선거
특히
그렇게
여러
개발
현재
지지
계획
학교
기술
국회
국내
부분
중요
정책
동안
으며
어디
재앙
완전
후보
자리
15
경찰
디자
관리
당신
보여
영화
##어나
방송
떨어
활동
##스트
내용
기대
진행
대비
모습
전문
한다는
으니
가족
다니
이러
디자인
대상
구입
잘못
이게
이야기
##라고
수사
삼성
피해
18
편하
근데
효과
새로
만큼
지난해
최근
정보
언론
설명
이해
오늘
장관
남자
학생
사진
결정
댓글
과정
주장
은데
시켜
여성
##부터
세상
올해
한다고
산업
기록
보내
이것
시민
스타
책임
##거리
얘기
아야
라면
더니
상태
을까
다양
##뻐요
세금
사랑
빠른
##소리
스럽
당시
역사
선물
나가
##다고
##머니
생활
대로
어느
이어
도시
운영
인정
나타
느낌
이날
평가
개인
기자
시대
대구
친구
##비스
방법
그런데
결국
구요
누구
일반
설치
선수
그럼
##시아
아들
라며
의미
에요
상대
또한
엄청
어려
관심
얼굴
직접
추천
맛있
판매
그만
교수
예정
제대로
확인
금융
저런
하루
준비
머리
얼마나
계약
업체
쓰레
서비스
기관
관계자
##다는
무엇
발생
자체
쓰레기
감독
국제
물론
먼저
이름
OO
단체
##스크
사고
##운데
기준
항상
공개
나온
마다
걱정
전체
또는
누가
부모
좌파
발전
50
일부
##레이
정상
그래도
환경
지나
이랑
보수
인터
새로운
##러운
구성
기간
빨리
반대
지방
새끼
현대
구나
박근
이거
참여
이라고
25
알려
OOO
16
따르
언제
내려
생산
성장
13
어도
박근혜
##갱이
현실
행사
##인다
들어가
힘들
선택
제공
발표
규모
는가
경쟁
입장
능력
##랜드
가운데
청와
개혁
이쁘
올라
외국
청와대
매우
깔끔
추진
포함
잖아
빨갱이
요구
위해서
실제
노동
회장
포장
##000
해결
밖에
14
엄마
##이트
제발
##버지
건강
그녀
뉴스
여행
부산
판단
17
요즘
성공
미래
못한
거리
예요
자동
중심
조작
노력
로서
인사
오래
정의
피부
해외
검사
병원
더욱
은행
어린
유지
존재
이건
##부분
전쟁
공산
아닌가
구조
##어요
기본
아파
의사
자연
대해서
고객
버리
추가
##이스
전국
소비
행동
마련
위원회
만나
일단
시설
려는
최대
분석
똑같
기능
영향
199
변화
부담
가치
기존
그게
도움
40
거의
대회
개월
처리
기회
지적
경영
안전
나요
대부분
##구요
주민
공동
##그램
범죄
##라도
서로
나와
직원
색상
당연
센터
거짓
지요
찾아
특별
확실
활용
방식
전화
##무원
나왔
김정
드러
증가
조직
마스크
고민
바라
##가리
규정
##으며
프로그램
보험
##려고
작품
만든
예쁘
차이
제도
건설
##스로
거기
한편
보호
해당
##없이
행위
못했
오후
표현
ㅉㅉ
적극
집단
건데
중앙
비교
스스로
자식
예상
달러
본인
##리아
역할
배우
경험
거래
##라이
한데
##진다
아버지
주택
치료
우선
그대로
절대
24
기다
회의
이루
##해서
##린다
내년
공부
그때
바람
광주
다만
이전
##천지
##자리
남편
봐야
봐라
보인다
로부터
분야
나이
업무
과거
##동안
지도
강조
강화
공무원
확대
주변
관광
적용
정당
아파트
다르
게임
##구나
##가지
21
적당
제일
신천지
결혼
여름
비판
탄핵
##er
자주
권력
시즌
와서
그룹
전략
더라도
거든
행정
부족
시스
공사
미친
여론
위기
공간
됩니다
현장
어렵
구속
자동차
의료
튼튼
상당
선동
부정
개선
전망
보도
##시다
피고
이익
외교
비용
이뻐요
의견
기억
ㅠㅠ
대신
마지
출신
과학
오히
부동
통합
##의원
오히려
전혀
으로서
총선
세월
목적
냄새
인터넷
아기
##로나
위험
방문
사장
23
시스템
관한
지속
##워서
금지
##나라
이사
비롯
브랜드
지급
고려
22
혼자
만드
올리
기분
바이
인천
부동산
##너지
수출
마지막
##마트
텐데
원고
투표
사무
약간
작업
평화
목표
원래
분명
느냐
불편
충분
부드
공급
전부
##어난
아라
물건
예산
공격
분위
더불
인생
대책
지켜
사라
상승
따라서
주식
행복
진정
순간
코로나
판결
넘어
에선
안정
##심히
실시
조아
위원장
말씀
시원
가볍
누리
국회의원
모양
선생
단계
감정
##세요
신경
환자
음식
예뻐요
분위기
자료
소득
전문가
교회
달리
으로써
아베
라서
당하
민족
재판
신청
움직
시기
으면서
살아
집중
유럽
##한다
증거
품질
가까
승리
주인
주요
건지
그램
여야
열린
자금
는구나
친일
따설명
제작
열심히
처벌
가진
으나
독재
##전자
사과
조정
음악
합의
##라인
가져
광고
신문
청소
차지
고요
건가
신고
대응
세력
의식
아침
##디어
##on
##돼지
훨씬
26
수익
##른다
어머니
27
공장
정확
인식
시절
대체
노조
##럼프
협력
공정
복지
어라
겨울
재산
단지
발견
불법
하고
위치
해야지
앞서
셔서
비슷
동시
보고
트럼프
##려서
가성
시행
60
안타
인상
돌아가
겁니다
지구
마을
개돼지
조치
가정
어쩌
목소리
확보
영업
비해
##러스
각각
생명
##드시
화장
연결
28
전자
반드시
우려
평균
아무리
모델
소재
종교
롯데
매일
변호
사태
##in
한심
떠나
대출
198
시켰
##으나
아마
국정
##어지
높이
인기
가슴
인물
질문
대단
조성
려면
유치
공연
보였
리그
수입
빨라
선정
아래
작가
예술
개정
듯이
김정은
##께요
논리
제기
카드
듭니다
##기업
혐의
떨어지
이하
매출
연기
그걸
영국
어찌
본다
통신
제주
교통
스러
돼지
##게요
노래
참석
일자리
그랬
지키
70
느끼
##수록
##아들
그림
마치
소비자
따른
마시
전기
글로
세대
유명
##리스
그동안
고자
달라
대화
습니까
독립
제시
시험
임금
가짜
LG
드라
던데
건물
시킨
대하
피해자
아님
도대
야당
##자기
##an

핵심
정리
도대체
사기
이래
##일보
이르
자한
스마트
거짓말
으니까
희망
독일
올림
이뤄
프랑
중소
장애
하늘
소속
사상
차례
글로벌
법원
##ㅋㅋ
아도
통일
아프
너희
최소
##레스
의혹
총장
반면
부르
주제
종합
##다가
##조건
방향
일정
내부
의하
ㅎㅎㅎ
차량
개념
대가리
장기
대선
한다면
밝혀
진보
방안
토착
##이어
비리
##인트
지식
무조건
원인
청년
조건
##or
착용
보통
한당
청구
##므로
도로
일어나
별로
인권
사항
소설
입국
사망
노인
외국인
형태
도입
가구
구만
꾸준
무능
생기
29
크기
TV
에너지
의해
규제
도착
이동
##어들
금액
오전
더라구요
나온다
응원
불안
올림픽
자본
인도
바뀌
각종
적폐
이젠
당장
오르
SK
요청
어려운
그거
할까
강력
소개
전통
으로부터
현상
자격
훈련
여전
논의
최초
뭔가
남성
빠져
실제로
조용
단순
나쁜
##해요
바꾸
궁금
영상
나중
무시
인해
참가
전시
진실
80
러시아
수행
자세
가리
자꾸
그럴
대변
나서
촉촉
올려
거든요
31
왜구
성과
인구
수도
파악
등록
공공
포기
지난달
프랑스
여부
제외
께서
공식
##이터
나무
어린이
협의
교사
##으면
줘야
##이지
체험
갑자기
실패
준다
심각
담당
반응
마찬
이미지
므로
자는
도와
##BS
고용
무대
재정
스러운
발언
법무
유통
혁신
평소
드라마
기획
민주주의
이명
네이
대형
마찬가지
예전
펀드
소유
라이
시청
등장
불과
최저
차원
살짝
문학
느껴
군사
논란
주도
업계
출연
스포
거부
대전
사례
군대
아시아
서민
수요
연금
솔직
저희
살인
##이크
체제
끼리
바르
집회
가입
불러
총리
내리
임명
따로
의무
포인트
의한
어울
제한
세기
##en
는데요
내놓
속도
난리
깨끗
부대
아름
된다는
오른
강남
고통
스타일
재미
자산
구체
알아
친절
제조
가르
000
소송
변호사
일으
남북
개최
나올
지정
연합
보유
이곳
드리
손해
지하
분양
황교
축구
감소
받아들
일까
전했
촛불
된다고
검토
할머니
일상
미리
나타났
꾸준히
동물
##학교
선보
달창
정치인
절차
선발
모자
코스
여전히
한국인
조차
500
아내
전환
전달
미사
해석
흔들
설립
##져서
초등
자원
상관
2000
의심
스포츠
협상
부인
사전
다리
우승
이기
작년
냐고
신발
이끌
굉장
봐도
여러분
##으니
노무
벌써
아쉬
비율
부문
라니
그건
체계
대중
아빠
공산당
진출
신뢰
전라도
약속
직장
주목
근로
성적
장난
던지
부드럽
나머
근무
으려
유리
스트
만약
보장
##아가
부탁
확실히
회담
취업
판사
샀어요
회복
재질
기초
권리
중국인
차별
##운드
##아먹
금리
당연히
출시
부끄
갈등
영어
눈물
항공
프리
아닐
지지율
##at
평생
시도
##아지
자랑
조립
근거
제출
원칙
기반
저녁
죽이
바닥
사퇴
최종
반영
경기도
그러니까
위반
할인
불구
##요일
##es
철저
혜택
버렸
나머지
블랙
##어진
자고
무서
나타나
본부
분기
보상
미세
굉장히
살펴
의지
확정
자녀
하나님
민간
변경
197
했었
마리
동네
인제
걸리
기념
법인
통과
울산
가만
걸로
나경
쇼핑
화면
구축
부부
증권
매장
우수
피고인
후기
##ar
##al
##마자
휴대
다행
여당
중소기업
아닙
기부
아쉽
이란
강제
편해요
바꿔
##립니다
특정
미사일
힘든
전하
자마자
경남
본격
이걸
이재
시킬
자국
##가락
누군
홍보
버스
올랐
불리
##사자
기다리
충분히
감염
##란다
다녀
공감
고등
주로
성능
동일
##반기
하락
##려야
심판
##학생
국방
위하
임대
나경원
##he
당선
죽음
무기
2015
안보
완전히
편안
공원
양심
선언
든지
##은행
공항
형성
무역
특징
알려졌
심리
90
##BC
색깔
처분
##우스
무리
300
비난
수술
2012
동의
촬영
잖아요
2010
없애
온라인
간다
중간
월드
35
미치
연속
고생
과연
할지
의회
넉넉
##어났
##이션
건조
크림
몰라
커피
원전
수석
헌법
간단
사법
허리
시위
언급
현지
가득
매국
작성
토지
던가
윤석
조합
생겼
비싸
학년
##무리
달려
점점
완성
집안
호텔
활성
을지
네이버
수상
라인
노무현
##디오
소식
건축
일제
경북
하이
으려고
소통
바보
제안
다며
뿌리
생긴
덕분
카페
자극
##거운
도전
황교안
돌려
망하
혹은
들어오
1000
교체
취소
협회
짜리
사정
아냐
교환
##간다
토론
고소
골프
법률
나누
차리
2014
집행
중단
좋아
회원
그저
레기
##스터
반성
전형
역대
식품
수업
귀여
거쳐
로운
전해
장소
주의
운전
주일
어쩔
바다
바라보
체육
혹시
자살
지배
유일
조절
축제
솔직히
언어
이명박
인력
대변인
대답
맞춰
성격
모아
선진
혁명
학습
이리
몰랐
베트
통화
친일파
인수
둘러
야구
조심
방침
택시
마무리
시각
눈치
했으며
직업
어제
가방
초기
##라리
열리
브라
##st
세트
불쌍
진심
박정
사유
그러면
실적
위안
박스
지랄
어차
고개
아름다
삼성전자
원장
월급
어차피
들여
심사
2011
구분
목숨
키우
경쟁력
연구원
태도
2008
2013
빠지
강한
졸업
사회주의
통한
꼼꼼
느라
##마디
오랜
봉사
마감
의도
##려라
##이팅
늘어나
상상
군요
##반도
싸움
2016
2009
난다
간첩
무식
사이트
표정
아예
연예
노동자
상담
제목
폭력
합리
물질
체결
동생
미군
특성
지사
희생
인한
##라지
##바로
작용
봅니다
덧붙
타이
베트남
##스타
더러운
바이러스
인터뷰
한마디
서울대
이론
검색
케이
##ic
하여
밝히
##먼지
청소년
대법
설계
계산
대사
요소
가벼
드렸
천만
등급
챙겨
외부
부자
지시
주말
한반도
##이드
접근
바리
당국
##정부
영역
사형
나갈
미세먼지
물러
계기
통제
바탕
놀라
차라리
줄이
나쁘
잠시
실수
연장
스마트폰
향후
시점
강원
수원
원심
자치
창업
편리
고양
법무부
앞두
청문
답답
측면
신용
선고
제거
마케
올라가
요리
길이
인하
시리
공유
는다는
폐지
196
매년
모여
인민
전반
웃음
상식
달성
여유
효율
채권
주가
컴퓨
베이
나섰
아용
##다보
개소리
웃기
출발
진단
##라스
재단
##벤트
투입
##it
특수
##난다
이때
배치
결론
고맙
확산
이벤트
동원
##랍니다
창조
멍청
철학
돌리
마케팅
단어
집권
##고기
수처
조선일보
분노
저지
##다니
공기
어야지
강하
장사
제정
##20
##스코
이탈
박사
##화점
합시다
##프트
인근
남불
훌륭
채용
위협
36
인증
최악
불가
종류
불매
학원
구역
그나
순위
수용
공산주의
미술
우한
대박
참고
강추
전용
쳐먹
비중
범위
컴퓨터
유시
장면
연락
가량
예방
프로젝
니다
나눠
당한
청원
신기
프레
방지
기독
고기
어려움
기타
아닌데
바란다
표시
문죄
취지
고정
반복
무료
##리카
교과
무게
금방
식사
마이
플레이
지수
뻔뻔
는다고
바랍니다
끌어
전력
45
창출
한번
어른
완벽
충전
명령
실천
벗어나
ㅜㅜ
리더
5000
마저
무난
과제
프로젝트
어깨
최순
가수
이성
상당히
태극
2007
바지
가을
편의
실험
걸렸
깨문
서울시
상호
동아
아무것
유시민
맨날
그만큼
##어도
컬러
목사
취급
충격
비행
전남
그리스
했어요
수수
국당
수단
##니스
##페인
옛날
비싼
의장
스러워
태양
향해
나름
계열
그린
통계
봐요
케이스
먼지
반일
기계
비밀
너무나
당했
보단
당해
펼쳐
알리
실력
수많
화학
청문회
허용
확진
택배
개입
나와서
애국
내일
아닙니다
##어날
소음
매번
세탁
설정
움직이
원내
51
데이터
##시지
했으나
수십
바른
정은
##서관
기독교
기재
종북
학부
덧붙였
니깐
무섭
매력
지도자
애기
더라고
배상
한계
##다면
필수
공약
박정희
분리
##합니다
구하
적절
##텐츠
미안
대우
보건
실망
기소
짱깨
고서
절반
보조
예수
커서
마세요
백화점
주사
비상
평등
으므로
허가
성분
저렇게
형식
영원
##나무
제재
드립니다
해양
뒤집
2017
32
세우
도덕
증명
명예
시켜야
##으로
##메라
이른
##너무
주위
두려
정체
요금
부품
여서
우주
사무실
싸우
살리
입학
보관
##말로
보냈
문자
온갖
감성
아동
레이
신규
통해서
간편
주인공
투자자
길래
심하
가까이
투명
투쟁
아까
##리어
나선
투기
부지
부상
흘러
분열
클럽
2018
들어갔
이럴
식당
긍정
시선
번창
국토
33
부여
연대
찬성
모른다
최선
실장
다운
상처
범죄자
유공
기울
누군가
생겨
다이어
가까운
으시
인재
##oo
기여
장비
버린
감옥
조선족
집값
유니
귀엽
가만히
노트
관객
너무너무
먹이
공천
KT
이어지
흐름
기구
그나마
당사자
어떠
배경
통하
붙이
극복
정하
살펴보
예비
날씨
이자
번호
상대방
상징
##50
끝나
요인
디지
보고서
대처
차단
##러워
윤석열
군인
독자
논문
미디어
균형
신랑
대리
실현
출마
##려요
##화문
시리즈
나간
연습
##el
챙기
대학교
연출
언제나
유공자
그런지
별도
##아치
심지
해졌
##바닥
보증
징역
올렸
똑같이
저기
화이팅
법안
적당히
다이
##져야
종이
스토
고발
한지
회견
지내
주체
시계
걸쳐
한나라
다소
한나라당
연구소
모임
강아지
기도
패션
수정
장점
용기
복합
지인
둘째
마트
외치
진다
부장
성비
자전
카메라
##철수
즐기
게다가
빨라요
기생
정규
아무런
##군요
##까요
38
애초
수학
놀이
##ou
넘어가
근본
##터리
조용히
청산
향상
매국노
떨어진
아가
광화문
지상
반도
의자
실질
방해
전투
기에
검증
결코
후회
콘텐츠
되게
월드컵
주차
입주
지지자
진술
맞추
감동
이중
이틀
처먹
오픈
##둥이
숫자
우파
고위
##om
연예인
억울
스트레스
이내
내세
공단
압박
##대표
추구
어용
이승
KBS
페미
저러
현금
가로
근로자
화이트
김영
보낸
한가
형사
굳이
유사
네여
안타깝
고향
##은이
태극기
전원
발행
출전
사업자
긴장
이행
심지어
어울리
동맹
그려
##바일
칭찬
세워
강의
애플
불만
안철수
##머리
고마
국무
유가
짓거리
모바일
갖추
국립
줘서
철도
육성
상고
편지
담배
임기
승인
격리
꼬라지
관광객
답니다
아름다운
무너
남녀
텔레
사은
새벽
빨랐
고속
정비
에겐
무릎
실업
대안
에이
뉴욕
단위
무지
할게요
##니아
이웃
정신병
아웃
추정
성인
엄청난
지분
34
물리
특검
지자
과장
2006
한화
등등
사은품
파괴
메시지
완화
자전거
그곳
이놈
을까요
공화
MBC
해소
이념
테이
##et
동기
오리
##ion
답변
출산
장치
벌이
나갔
나아가
분명히
착용감
다수
종목
커버
권한
사라지
이달
아니면
공직
완료
##리티
부리
연계
물가
위안부
자빠
홍콩
만난
유학
전년
##페이지
흡수
명단
메이
크리스
십시
슈퍼
양말
홈페이지
방사
가끔
못해
화장품
폐렴
경향
채널
야지
네트
뛰어
자율
운용
##릅니다
확장
점검
소장
전면
부처
점수
##ing
정해
거지
거품
코리아
반발
감안
##아내
도망
멤버
캐릭
폐기
압수
본질
미쳤
짜증
원자
인가요
철수
홈런
저자
##il
취득
##뜨리
보복
##ㅠㅠ
후반
모집
이슈
동료
##산물
죄인
부채
다섯
캐릭터
에스
배달
언니
자영
55
매매
걸린
오염
개국
떠올
김치
힘내
전세
터지
왜냐
안내
꺼내
이외
KB
적자
착한
발라
새롭
겨우
중공
교육청
비례
떨어져
마침
귀여워
더라고요
시인
##is
최소한
연간
후원
기름
테러
빨라서
악마
예쁜
대만
타령
농업
선진국
경상
자라
내렸
재료
투수
면적
혼란
작동
걸려
##환경
예측
##영상
##피스
중대
##nd
반도체
메뉴
매수
늘리
##와서
서류
못할
데리
가스
맛집
며칠
민심
유치원
의문
시국
더럽
교류
지나가
가해
##ol
생태
##잡이
##하면
영양
성폭
대기
살아가
워낙
멀리
매각
정기
죽여
원하
민국
인원
양아치
그래요
자영업
응답
사실상
수치
초반
노예
##ed
##회사
위선
끝내
이민
가게
따지
문통
거주
치매
##아버지
그래야
스티
시급
손실
천지
경고
그날
뭔지
동영상
휴가
당당
키워
타임
폭발
개판
에다
들이
투어
대북
김대
##워크
##am
대법원
핑크
취하
수고
학부모
정작
꼴통
지점
자면
로써
쿠션
든다
알아보
몰려
줄어들
발사
탄생
공포
경계
2005
작전
다이어트
일찍
전날
와이
지자체
비하
용량
움직임
두산
현대차
헛소리
원내대표
떠들
철저히
프레임
##리트
디지털
손가락
도둑
에어
개봉
용역
건너
근대
공동체
입니까
##리오
37
승부
오지
보안
내내
부당
색감
고장
거대
고등학교
##회장
유기
증상
이탈리아
소방
질환
부과
매달
활약
천안
52
창원
거듭
빠진
떨어졌
어리
in
지휘
물량
이렇
드러나
간식
소중
붙여
매체
##준다
전두
데뷔
신세
고양이
최대한
려구요
옹호
개별
ㅉㅉㅉ
이혼
조카
욕심
##센트
##어리
소프트
국장
옮겨
복잡
돌아오
인류
다를
리얼
어이
수분
##숭이
방어
양성
깊이
마르
이만
적어도
3000
대가
신분
역량
협박
##오르
소문
시켜라
단독
노선
무죄
전개
구멍
the
400
배출
메르
150
소녀
of
걸어
##일리
화려
개성
km
순수
수시
유도
취임
분류
폭행
합격
##30
써야
만났
##아이
연주
프리미
교활
194
정의당
성향
지경
허위
##re
눈길
두께
돼야
대학생
해명
아야지
줘라
가난
법정
면은
질서
시진
각자
지하철
관점
원단
재난
감시
올린
타격
라면서
임시
학자
때려
설득
타자
에게서
협약
65
용서
머물
##저기
우리나라
여기저기
접수
통상
장악
수립
전두환
유용
들어간
직후
적응
저축
실내
안심
41
막말
할께요
존경
그러므로
다루
화재
무상
조기
연봉
화장실
소외
근처
악화
저거
데려
불량
한참
##래도
아이디어
때리
첫째
감싸
기한
보일
부서
재미있
수수료
아우
느낄
취재
핸드
제국
스테
자존
습니
발휘
네트워크
수백
오빠
석유
더만
침대
봐서
##드리
관하
##노총
객관
해진
##러지
축하
결합
미소
수능
스런
곳곳
##아리
광장
져야
계시
공모
들려
회계
출판
영웅
그니까
지켜보
잠깐
##공사
주거
급여
원숭이
감각
명확
피하
협조
기기
표준
시진핑
2004
48
질병
왜곡
참으로
생존
결제
인용
식민
소수
즉시
무서운
선전
부끄럽
노출
진입
주년
아저
단일
개방
맥주
39
업종
중도
수비
드러내
침해
펼치
득점
박원
기원
담보
찾아가
구청
##다른
친환경
나베
인공
양반
티비
벌금
소년
수영
##총리
태어나
뇌물
##연히
가졌
오해
아저씨
직전
##메달
모른
선호
대장
상장
파리
장군
신체
청장
IT
복귀
부회장
일치
##웨이
좌우
받아들이
그네
##친다
관람
협정
극우
저것
아울
##란드
42
정확히
마약
기생충
유엔
진영
구간
캠프
안녕
소화
갖춘
전제
꺼져
인성
상위
키로
기각
##로지
##뻐서
##어졌
비록
가려
김성
아닐까
단기
호주
실행
##프라
단속
윤리
녀석
경주
개편
선배
75
물품
습관
배려
촉구
이스
단식
아깝
발목
장학
리뷰
재벌
변하
어쨌
계층
형제
한쪽
깜짝
축소
느꼈
동양
느그
돼서
운명
##덩이
##튜브
##는데
오직
점유
##줌마
저질
충남
일본인
매트
파업
99
비즈
육아
사안
짱짱
##ch
##다수
블루
아줌마
정지
유튜브
고대
주주
원리
해체
방역
일으키
쓸께요
착각
젊은이
##걸이
아닌가요
남기
점심
살려
맞춤
유형
미니
모를
써서
호남
내지
사드
돌파
으신
된다면
위법
매입
##긴다
에휴
구단
똑바로
2002
오늘날
단다
챔피
경력
위대
클래
한두
어두
유출
##지사
건가요
조만
저게
흥미
폐쇄
예약
아르
박수
의존
부실
부위
부패
저리
게요
경비
위주
임원
귀찮
바퀴
팀장
모으
다름
제주도
단순히
신속
채무
페이스
심한
사내
구라
산다
훼손
출입
놀랐
신설
민노총
공통
자국민
입시
이래서
언젠
라운드
스피
뛰어난
치열
밝힌
특허
할아버지
비행기
망치
지위
추세
체크
주관
44
설비
긴급
발달
종료
측정
백성
두꺼
오랫
존나
퍼센트
발굴
무한
포항
동반
줄여
전공
열렸
직무
김경
정원
느낀
도서관
국산
란다
싸이
연령
앨범
가동
아이템
수당
이른바
단점
일부러
무겁
아픈
김대중
일방
신호
재밌
공인
선박
당초
거라
무척
김종
말아먹
가시
보습
첨단
##더니
마당
자본주의
출범
저항
좋아하
흐르
다닐
호소
해방
오바
수령
데이
동남
은지
황제
고교
그치
조만간
부진
##직원
##란히
##어버
대금
미쳐
규칙
풍부
영장
냐는
시내
갈수록
셔야
물어
연말
대다수
향기
상반기
조중
심장
강원도
잠재
따위
본사
열정
2003
드디어
우유
우린
존중
##뮤니
등기
적합
초대
즐길
교과서
퀄리티
커뮤니
호흡
대놓
출근
버티
져서
66
##트리
고문
거두
망해
더군요
밴드
##저리
화제
##바지
##다리
일어난
거치
편한
##네요
하반기
중학교
정신병자
##IA
계좌
일반인
문서
김일
전북
인정받
익숙
상하
모니
이겨
이라
은가
퇴직
운행
##비아
##들이
단단
박물
접촉
저렇
어려워
호구
개막
마디
줄어
자네
걸음
##교육
오프
끊임
자빠졌
쉬운
될까
십시오
내게
조각
46
빨간
##le
재무
의학
##에도
들리
이쁜
연관
점차
비서
43
##플레이
똑똑
커지
##id
채택
해봐
이정
기득
정서
구리
올바
##로운
이득
배제
54
왜냐하면
##어져
비전
죄송
지진
이뤄지
지닌
오로지
조명
편집
왼쪽
기아
여건
문정
연극
##수색
쩝쩝
아니하
마땅
진료
지연
인프라
끝난
전파
오버
책상
흘리
초청
##핵화
비핵화
총회
파트
어휴
홍준
반박
들어서
47
돼요
남한
49
못한다
##구석
일종
민감
그릇
늘어난
달하
압수수색
으라고
경선
당황
박지
195
진작
정수
##생활
강요
영혼
패스
아무래도
지니
될지
생일
조언
박물관
오랫동안
홍준표
과세
신선
세일
상자
##as
자존심
체포
와중
대강
미터
괜히
거론
신상
정착
내린
지향
##버스
아울러
입법
##카오
십니다
변동
활발
시티
드루
지나치
지능
편성
지옥
반품
운전자
휴대폰
국방부
대결
용어
임신
시사
주력
조중동
비추
포스코
죄다
드릴
제약
마주
고인
해제
공작
아프리카
용도
전염
당원
이루어지
해운
확신
파견
신라
탈출
안타까
은은
프리미엄
는다면
벌어지
##ul
노릇
강간
배운
##의자
건립
합병
지출
장식
결승
추석
의료진
심의
아가리
수납
무려
실물
서구
뮤지
표창
비즈니스
민생
할려고
초과
문제점
##세대
##ood
##담회
잘라
기지
파크
괴롭
무사
분쟁
일관
국정원
바이오
빼앗
신축
엔진
극장
남겨
사이비
입증
예고
지대
연방
배터리
보완
##조리
도쿄
95
알려진
큰일
간부
##민주
강사
네네
가요
벌레
시청자
변명
상업
디스
제정신
세종
로마
##권자
보인
##힌다
이사장
입맛
요건
모니터
##로스
연설
샘플
면접
사단
만만
트리
김일성
로봇
앞장
교육감
은퇴
상실
평범
자아
다스
라디오
새기
주자
마사
스님
수리
후손
낭비
억지
180
유행
스토리
이닝
스페인
심플
선임
##서트
드러났
광역
62
명품
골라
전교
순환
지표
##조합
증시
고집
실용
대국
테이블
식물
플러스
##마스
통보
사원
영원히
##저히
부들
밀어
##NS
지원금
보여요
동부
성명
메르스
600
신한
정경
피아
만날
뜨거운
넘치
믿음
명백
##다란
채우
간담회
온도
연수
즐거
##케이션
동참
미만
독특
스파
일자
학기
음성
상인
겁나
이딴
실체
알려져
##⠀⠀
타인
유발
역겹
여인
##레이드
마냥
고무
이분
환율
음주
환영
성폭행
선두
김태
학과
명분
리라
그대
##미터
성실
공주
불교
혐오
##나다
마라
배당
진상
마이크
만남
침체
몰아
보존
문가
대폭
무장
유아
정식
데일리
관찰
테스트
아닌지
운운
유승
되돌
예배
징계
애비
구경
그럼에도
미개
빠졌
진중
1990
##웨어
한정
깨달
고유
함부
절대로
들어갈
오른쪽
정성
가르치
58
사료
방사능
그분
대놓고
노트북
관여
평양
##ag
냉장
무선
계열사
구상
위조
종자
들어왔
식민지
흔히
챔피언
신화
85
##테리어
kg
아마도
찾아보
관세
가해자
##타기
배신
소위
120
농민
핑계
벗겨
어떨
에라이
유산
주행
견해
일당
만일
검정
지주
여지
경기장
얼른
cm
신중
어쨌든
추억
파이
했으니
트위
##카드
국적
양식
케이블
##리스트
내보
차려라
당일
충성
PC
내려가
차기
부활
브리
레드
윤미
스크
물러나
호기
CE
농단
번역
##르트
##구리
양국
대립
일어났
교육부
SBS
책임지
나타내
인테리어
통증
이재명
평창
##운동
넘기
누르
준다고
가죽
손님
압력
결의
착하
충돌
##너스
맛나
##러리
실무
체육관
대행
아쉬운
드라이
사냥
멋진
독도
고구
비정
중독
으론
문장
토대
트러
스킨
꼬리
안다
생물
조항
녹색
치수
진리
그런가
일대
경찰서
사령
영향력
멈추
어이없
선출
서초
서양
장학금
치킨
상가
강도
정유
협의회
주머니
도발
더러
학문
구제
2019
ㅇㅇ
마누
몰라도
콘서트
##ent
##혜원
56
였으며
에서부터
도심
특혜
일시
스위
한글
도구
가계
##러진
캐나다
84
##ow
어르
and
극단
과목
독서
여의
팔아먹
농구
관측
수천
채워
파워
혈세
##거지
맞이
명의
지명
주기
##ct
59
언젠가
폭탄
어려울
집계
##조선
2020
사로
과도
욕먹
##아요
##워하
이슬
갤럭
각오
함부로
백만
갤럭시
기쁨
넘겨
외환
문정부
삭제
으라
자발
구글
증언
영입
들어온
실리
매도
카카오
파티
강연
인데요
트위터
로션
누굴
바디
트러블
짐승
근육
버릴
노사
##TA
수록
스카
천연
패배
##쳐서
고령
지리
윤미향
거절
공소
습니당
배워
노후
성남
공제
행태
불렀
물타기
계급
초점
성립
용품
창의
차관
즉각
전주
촉진
신앙
선보이
커다란
침묵
오바마
사망자
농협
복수
필리
강경
##이너
남부
빠릅니다
앞세
박원순
소환
용인
베스트
해고
개정안
권위
SNS
고도
급하
흰색
으러
수급
손혜원
상속
##ot
2001
먹여
서명
시끄
고시
정한
외면
53
보급
가라
김현
대학원
##니어
고리
어르신
건전
덩어리
수주
조화
보험료
버려
##항공
여수
충실
간호
붕괴
만화
사물
주간
비정규
옮기
세포
편합니다
이라도
치즈
대용
개설
치우
곧바로
십니까
으세요
비타
어쩌면
64
800
공짜
약한
대충
사로잡
격차
수지
비정규직
소형
수집
오랜만
북괴
자제
재수
현행
4000
무너지
가상
바람직
전이
518
내수
끌려
그렇지만
빌려
KIA
공화국
브라질
##임금
내려오
##학자
종일
민원
홍어
치르
하우스
잇따
확률
한때
시켜서
미끄
경매
하도
두껍
진화
지껄
무렵
쁩니다
스케
항의
절감
획득
테크
상관없
플랫
갑니다
금메달
대량
알바
후배
벤처
1980
쿠폰
대구시
가질
쳐다보
중공업
밀려
증인
주둥
끊임없이
이스라
57
모이
걸레
동남아
보편
천천
임직원
면허
김진
부작
합니까
품목
조지
전해졌
천천히
취약
한미
00
납부
저장
충청
기금
입구
더블
기장
을께요
##가스
지혜
찬양
어지
와인
선사
해질
입원
귀족
교도
독재자
소스
부사
강점
당할
노리
현안
올바른
추경
케어
무효
일보
런던
딱딱
추미
우울
##러져
마니
회수
중동
구성원
진중권
풍경
##구니
최우
신세계
연맹
방위
양산
설마
쓰이
음료
포럼
어여
통치
불가피
정답
세웠
태국
붙잡
시정
타입
농촌
감당
우습
강행
양도
위로
맞서
감방
거실
동성
게시
다는데
욕망
주최
청약
조례
부추
발전소
바위
코치
체력
일가
심정
##해야
추적
아이폰
국내외
감수
이스라엘
메모
돌아다니
명절
어째
입지
몇몇
지성
수호
엑스
만세
급격
연휴
살아남
코드
뒤지
양쪽
숨기
##티브
전후
거울
구현
감추
재건
민중
푹신
페이스북
언론사
병사
시골
재생
진지
상임
주한
역전
장착
교실
흔적
자유민주
널리
다녔
가벼운
마침내
항소
깨닫
연애
진주
고르
마누라
압도
아트
##ur
바쁘
이낙
사법부
해군
요새
항목
필름
자문
예능
문화재
조상
의뢰
종종
과일
수구
실정
타당
탄탄
재인
외출
떠오르
기상
입찰
태양광
##내리
공중
맘대로
불행
원정
테마
개그
결심
날아
황금
조달
흔들리
핸드폰
##어놓
견제
순서
예의
모시
마크
이주
자세히
이용자
두드
편해서
비타민
##리즘
규명
추종
커플
약하
##도로
면제
시범
감히
김재
주차장
최저임금
프린
그놈
가깝
이어졌
조장
정품
가공
시달
공직자
냉장고
##어질
기운
범행
캠페인
군수
방치
엄격
##시마
세운
재판부
어린이집
##스티
푸드
수장
##건설
참사
보낼
##사고
그리스도
태어난
뭔데
대대
철회
자유민주주의
구별
패턴
돌아왔
##로그
지도부
심해
망신
자위
꿈꾸
72
##단지
식구
77
그지
법칙
살해
##ad
도저히
돌아온
250
아쉬움
정말로
동력
예금
아닙니까
여겨
유입
위장
다행히
철거
유대
열린다
던져
틀림
아시
그간
트렌
구도
논쟁
##ut
특유
부딪
태풍
소름
물류
뮤지컬
##un
문명
CEO
계절
입히
입술
인치
암튼
씁니다
밀리
탄압
발악
피곤
휴식
##집니다
이순
##클로
담겨
주소
올릴
CJ
마인
기다렸
높여
나눔
조합원
한숨
중반
주석
재고
전교조
날리
시트
비닐
담긴
아나
생길
베네
사세요
63
이낙연
뚜껑
##아나
##og
자유당
변신
##스토
제자
아끼
시나
엘리
판정
##부들
용지
어머
전라
아픔
마친
##디션
어릴
사라졌
농가
##인지
몰래
동작
갈라
뚜렷
해산
부들부들
향한
타이어
을게요
허락
선거법
대상자
당부
틀린
부드러운
쏟아
추미애
상공
때로
오만
급증
바뀐
노란
비디오
타워
사리
골목
모래
유로
멋지
군데
화성
다가오
생각나
나설
패드
문의
욕구
단장
소용
신부
민정
공익
193
나타난
공시
운송
경로
특이
스키
편의점
유권자
고전
대지
산책
68
인격
실점
공학
애용
재능
700
개헌
##CT
손상
야권
산하
출석
하얀
무거운
융합
창피
양보
구원
tv
걸까
일체
컨설
하여금
IM
리더십
인연
캠핑
시체
6000
각국
안경
섬유
메이저
##우드
창작
구석
마구
유니클로
유전자
복원
받아들여
매출액
니당
##ation
The
예외
그쳤
고작
##빨리
써요
부적
한방
실시간
선도
##혀서
감기
을려고
묘사
엉덩이
부끄러운
올라오
탄력
려나
오일
간접
##랑이
초래
구청장
소지
멀쩡
##소득
지겹
고사
상무
유족
시킨다
승진
매주
문구
그라
경상도
형편
다면서
리스트
할려
의해서
191
으리
부도
가사
납니다
하수
북미
충족
시중
명칭
소요
for
환상
고스
날짜
하위
##ED
차려
일기
대거
눈앞
남쪽
##번에
누나
제조업
세련
합류
화물
61
동해
이슬람
연평
들어와
##쟁이
조리
코미
##거렸
67
도민
점포
파일
위탁
저번
막상
방탄
행보
배웠
처지
블록
계신
무력
출장
##워요
부각
임무
였으나
으셨
납품
1999
##그룹
##총장
재개
관료
클래식
원가
지불
든가
발림
장난감
추방
고백
갈아
홀로
이마트
졸라
부작용
모았
참조
1997
보조금
원자력
버튼
영화제
공헌
노총
##iv
안팎
즐겁
후쿠
써라
쪽팔
당분
섭취
랜드
으려는
일지
##보드
NC
추락
는구
현황
국어
수면
소련
88
게이
##바이
바꿨
모색
퇴근
의결
열차
죽인
엉망
진정한
대접
필리핀
신도
주방
서서
1998
어리석
유죄
FTA
##낸다
8000
개학
##us
중고
등신
천재
플라스
74
크리스마스
측근
무관
총괄
즐겨
남용
행정부
양념
그야
##쁩니다
사이버
골드
구미
쇼핑몰
대체로
모순
##벌이
FC
역겨
떨어질
피로
GS
막대
##시장
##ig
외모
202
참가자
이모
하드
판매자
맡기
해봐라
후진
지네
이종
아메
수소
침략
가루
귀국
김상
합법
부가
장르
경영자
상환
대목
여권
상사
일어
##범죄
발볼
나아
##야지
통장
하여간
명시
북쪽
안쪽
니까요
인문
독점
디스플레이
##ㅋㅋㅋㅋ
계단
상생
무언
천국
인형
##거래
사죄
##하나
든든
하긴
손목
번지
도톰
유력
취향
박영
종전
헤드
##어먹
자신감
##증권
발급
해상
##운전
품평
어우
유해
태평
##본다
끔찍
파탄
범인
가전
대주
변수
파트너
190
신입
봉쇄
##매매
면세
모조리
닥치
떠났
신학
한강
정규직
해지
신나
중립
모자라
구두
쟁이
소신
물려
김동
과감
오피스
마인드
장수
박람
세부
저작
비서관
권고
관행
아무튼
유동
겁니까
신인
대륙
지역구
방학
넥센
비로
고지
청사
##풀이
텔레콤
추모
소매
둘러싼
또라이
셋째
전역
소프트웨어
글자
온다
코미디
71
약자
보좌
영광
소주
꼼꼼히
내면
보전
나빠
고쳐
바꿀
##산업
지침
동질
기대감
색히
꼼수
플라스틱
##입니다
는군
주먹
##부리
명성
인종
##im
양상
메인
급식
설문
김해
연료
드림
국세
이승만
##저것
탁월
게이트
##문화
여섯
전지
엔터
초딩
기다려
가르쳐
이것저것
쓴다
콜라
심상
철강
화폐
법령
피의자
여의도
선명
속하
##제품
기후
주부
보여서
가입자
가져가
##소년
파우
눌러
오프라인
목포
낮추
바깥
관념
이재용
##크스
매치
종로
서해
시공
공평
터진
개통
망할
이야말로
죽일
하여튼
대요
최상
도중
보여준다
농사
숨겨
베이징
학회
192
터져
오토
현명
##비전
걸릴
외교부
하하
당분간
AI
점령
자르
공략
부착
관할
인건
이불
누워
곤란
스프
무거
주름
##이즈
그레이
경찰청
원주
포스트
뛰어나
플라
중구
이해찬
공기업
73
품절
향도
간절
이길
학력
98
죽창
76
데모
청정
전당
책임자
서면
그립
PD
적발
타이틀
토요일
앞뒤
이룬
잠실
코트
돌아보
성추
모인
기어
창문
부러
진학
벌였
저지른
##나이
내주
뱅크
##회의
내요
생계
금속
면역
시세
터치
로스
##느님
입사
격려
시비
천하
퇴출
한층
69
7000
사립
대외
업자
공고
82
가이드
특별히
로드
중계
따라가
간신
78
약정
금강
지났
그쪽
인디
무용
예민
위상
##브리
시나리오
트랙
준다는
회전
반짝
합동
부하
하느님
일어날
선보였
서부
기호
##어넣
##키지
미칠
망가
애니
성추행
진동
애정
인턴
사모
향하
앞둔
##따위
기술력
세이
영남
##르크
사면
그야말로
김경수
스탠
신념
포르
이태
유연
진흥
기차
마법
줄어든
대해선
다물
중재
구먼
견고
여사
상당수
마쳤
원천
영감
##그릇
뷰티
커요
어두운
##ay
최강
등산
##업자
촉감
월세
위생
흥분
앞장서
동북
패키지
도달
##os
머릿
유승민
##포르
##관리
저지르
##시코
어마
표면
스펙
살림
대개
오가
세무
연패
바쁜
표기
페이
서서히
워싱
무덤
시상
망설
더구나
##ce
##여서
빌딩
클라
마켓
사자
IMF
빠져나
오류
종시
사라져
쯧쯧
이끄
매니
푸른
김기
잡히
북부
살피
착수
라구
요원
대법관
갖춰
벨트
국무총리
고추
아름답
정황
##지않
계란
상세
소멸
##가루
최적
내밀
조롱
아시안
예쁩니다
영토
끌어올
해진다
은근
성매매
노하
감자
따져
소득세
이순신
사후
두려움
버려야
계약서
달라지
##치기
소원
확충
감상
저소득
옵션
고수
비치
김용
유효
본래
##토록
전시회
드러냈
김학
연상
딸아이
박람회
드려요
일각
억제
##스탄
국익
##벌레
기적
패거리
1970
스러웠
코너
인건비
잡지
클린
식이
싱글
도박
적정
학위
직장인
##ir
에다가
절실
##op
미술관
거친
##bs
이뻐
눈빛
신임
두루
파란
톡톡
폭동
##무성
전광
탑재
상금
통지
비로소
염려
보육
충북
놓치
약국
였을
##가포르
##처럼
지냈
94
이영
연승
최신
박살
놀랍
##스턴
소금
나불
관절
싱가포르
도지사
행진
짐작
청주
전선
예뻐서
미국인
##석희
한겨
퍼지
##CD
##대가리
필자
다닌
모은
사찰
전수
식탁
동화
아부
쓸데
이수
잡혀
남아
넘쳐
유가족
업적
경호
일요일
##보이
설명서
심화
헤어
조세
풀이
이만희
텔레비전
이어질
침몰
주류
손잡
학대
기아차
컨설팅
##셔츠
흥행
아카
독립운동
떠난
현직
성질
##봐야
풀리
식량
남겼
##꺼번에
몰리
등판
프라이
한꺼번에
수습
신생
##잖아
고치
한결
재배
스웨
##CC
토론회
그만두
##옵니다
상승세
가맹
개시
도약
초등학생
여태
모터
전염병
성범죄
벌어진
비극
트렌드
실종
구호
춘천
조약
청탁
작정
리모
육체
쫀쫀
까진
어떡
분할
한동안
석탄
고의
한창
##지르
##둘러
국경
기조
누적
한전
힘드
천억
##단체
수시로
모범
내역
사무소
정직
특권
개척
발광
바치
전적
##가운
코스피
커뮤니케이션
늘어날
KBO
교통사고
괴물
야외
된장
일원
어둠
비자
도내
브로
한도
작곡
장례
86
전직
지워
목욕
포트
극대
##느리
정세
워싱턴
주둥이
열받
반미
왠지
비대
##피아
탈락
신사
##ie
어려웠
위성
해안
찌질
성경
호수
소감
멕시코
학살
나대
학술
##무기
느리
이걸로
부사장
페이지
일으킨
성취
정면
용산
승객
반찬
솔로
흑인
져라
담당자
복용
피자
효력
상표
프라
가라앉
팔리
81
슬픔
정밀
법리
##바람
##프레
화사
과자
가즈
순이
세끼
##여행
고는
비유
속이
세제
모욕
진로
스튜
원조
끄덕
1995
##퍼스
##든지
뮤직
접속
소유자
기법
병역
부천
##스레
음모
##던데
속옷
형상
우기
엄청나
일세
늘려
먹스
타점
지령
뒤늦
이루어진
##받침
세뇌
박탈
맥락
버전
돌렸
잔인
##네시아
리조
말리
##디아
법조
사우
적립
높였
1500
산정
으려면
감축
줄줄
나란히
연인
전사
발상
거뒀
합쳐
지껄이
증세
써도
내정
포스
한남
##같이
예선
간주
여경
새해
랍니다
교도소
가속
준공
화력
아이돌
시집
김제
##em
편해
줄기
시신
즐거운
국수
조제
신혼
늘어났
펼쳤
마음대로
오를
양자
우연히
발송
87
달린
얼음
##스키
내려놓
##현진
사연
정국
좌익
샤워
베개
총알
간섭
법대
증여
막히
전설
포털
97
공지
바래
사인
96
노하우
떳떳
앞선
되찾
애매
와이프
왕따
선교
글쎄
농장
인과
난민
중점
부드러워
하나하나
자진
지부
의외
미아
멋있
목록
스티커
반환
아이스
79
스크린
##하여
잣대
임대료
도리
대원
수신
무언가
잃어버
##ra
탄소
각질
##PG
횡령
은데요
해져
##무지
교장
조종
엘지
##어진다
가져다
유전
치러
##용차
응급
깡패
혈액
꼰대
식단
##주의자
인도네시아
교정
어떨까
신장
꺼져라
##그리
동성애
야간
엉뚱
이치
기저
이른다
재건축
##온다
판매량
겨냥
환경부
라이트
가벼워서
대항
중개
골프장
음질
##러움
트레이
까닭
태어났
110
##성장
전술
패널
위축
싸워
MB
파기
전담
빠름
중시
저건
주재
부총리
석방
##관위
크루
##대문
증권사
피아노
필터
만기
친정
##행위
스타트
멀티
자부
치유
전무
총재
미루
밥그릇
130
##거나
현역
완공
보임
발명
즐거움
공업
브라운
허구
출동
기온
분산
주저
발매
헬스
91
브리핑
길거리
플랜
##경북
놓여
황당
반려
결단
간판
가중
창고
증대
군부
금호
내릴
이대로
피우
명목
라이프
다니엘
내려와
##레인
강릉
아리
89
지르
사격
고구려
##직자
##um
마이너스
농산물
몰라서
손바닥
바닷
잔뜩
간호사
물티
인쇄
마산
실태
메이크
워크
##데이
차장
발주
구해
회관
날카
건수
온통
92
거래소
세미
더냐
화합
항공기
유독
정통
의류
스위스
급속
물티슈
이적
분배
표창장
억압
절망
화질
으네
단축
표명
액션
##스티벌
내세우
페스티벌
뿌려
두꺼운
##컨대
귀신
죽였
아이고
광주시
리조트
mm
신비
음식점
잔치
##뜨렸
숙박
생생
는구만
조그
바꾼
약점
##구멍
면세점
평택
호기심
결혼식
거슬
최후
원료
도시락
국물
과실
교황
##관계
방송사
특화
리스크
노동당
동서
기울이
지난번
사무총장
할까요
낚시
들으면
삭발
지소
음반
모지
둘러싸
끼치
동구
베이비
육군
##더기
스페
사업비
##oc
비트
##루션
너거
##르르
건국
과잉
저딴
터미
참모
돌입
산업단지
려다
김연
법관
83
기성
대단히
틀리
신축성
원유
진하
##어내
기모
김지
별다른
##스럽
터키
안양
모금
추측
달콤
빛나
공영
력사
단정
원활
보여준
1996
지낸
벌어졌
국면
초보
머릿속
백신
티셔츠
아니한
김정일
달했
대용량
통수
##두르
주식회사
신성
어딘
분당
바둑
관장
구름
to
날려
안방
실리콘
집착
마셔
생리
버려라
면상
녹음
뒷받침
슬림
에어컨
900
스승
포도
서기
성숙
새우
전액
더듬
노벨
동지
놀라운
날개
편입
걸려서
재원
할꺼
튀어나
손잡이
낸다
신종
오죽
염병
보입니다
새겨
부럽
##로우
저놈
당첨
구장
우위
줘도
줍니다
글씨
출생
캠퍼스
##동생
9000
할래
도청
약해
플래
모드
##트롤
손석희
파산
집니다
해수
비평
지체
지검
1994
흑자
최다
환장
네티
##산부
함유
온몸
미용
선행
##ers
160
입력
##어준
노동조합
이뻐서
자칫
방수
나타난다
제로
##시스
한자
냉동
상주
동계
중앙일보
수명
김어준
이뤄졌
박지원
일산
경위
도서
신탁
호응
당내
개소
제고
팬티
비비
협동
놔두
꺼리
순천
자사
내보내
예뻐
지법
##지부
GM
원수
네티즌
##덜란드
부양
한겨레
장자
기쁘
##메이션
로비
중견
찾아내
##든가
##식간
회피
요양
수렴
선제
네덜란드
무인
임상
마녀
메이크업
일곱
억지로
김민
복무
보람
보충
##두리
##NA
선포
시가
배정
찌그
##통일
##ea
마비
재정부
농담
안중
이제야
달한다
다네요
##끼리
출국
EU
채소
부스
이완
망했
##테크
태평양
교섭
악질
힘입
느니
산림
공세
렌즈
스코
자질
적시
됐으며
한진
왕자
전락
발효
여객
화해
윤석렬
취미
적법
무산
패러
다룬
물고기
생선
이병
##시간
경찰관
타운
##od
##서리
소나
더욱이
단체장
명문
목격
혈압
제보
패스트
이인
라기
소독
부산시
수법
도우
슬프
음주운전
선관위
잠수
순식간
##오프
두툼
디자이너
직권
명복
손자
쟁점
티켓
냐면
고려대
읍니다
후속
뛰어들
사업장
재판장
건설사
처방
##타인
축적
교주
봅시다
##어야
김포
오페
트럭
93
리얼미터
지켜야
병행
핵무기
터미널
김수
출자
단백
왕국
의약
사악
##마니
아오
ㅡㅡ
지우
근원
헌신
유세
##소년단
복구
보소
삭감
풍성
##그레이드
업그레이드
와라
여도
미스
웨이
가하
말라
대국민
대갈
맞대
초월
뛰어넘
방탄소년단
ㅠㅠㅠ
##닉스
나사
교인
이언
마스터
히트
선조
부디
웃긴
열기
향수
서술
단원
과시
귀여운
횟수
증진
일일
지목
##ess
로맨
김제동
배울
려니
탐구
도장
볼까
##볶이
유혹
주고
반사
달래
##ec
공안
궁극
기세
영구
중지
동포
상영
몽골
제압
전신
무늬
스쿨
시술
유감
씌우
빨래
지장
##다지
사도
연합회
상한
계정
정수기
쌍용
고스란히
소셜
첫날
마사지
지식인
상의
제사
아랫
백제
인천시
앞세워
다구
강세
##부인
변형
레이스
합성
보드
앙이
씨부리
대구경북
대한항공
지킬
블로그
집사
동조
합작
불안감
포토
국군
맡겨
건의
분담
들여다보
토끼
타이트
과학자
지난주
스웨덴
희생자
이윤
조폭
차질
져요
심심
으리라
밀착
자회사
달랐
전복
새삼
##렉스
설사
양파
문건
김무성
##운서
마우스
경유
단호
##시고
아나운서
어딜
배후
만지
당기
수험
베이스
한국어
지퍼
##버리
줄일
교부
우스
견디
1960
욕하
랄까
편히
##엘라
##동강
잇따라
##파이
감지
##bc
유포
위임
의상
모였
포괄
감염자
꺼지
떡볶이
족속
병력
거꾸
드립
St
인척
애요
반전
산불
일행
저하
불신
안타까운
코스닥
치밀
시끄럽
선거구
거세
데이트
특위
240
청춘
던졌
이지
##ap
어때
솔루션
단가
##런스
망한
140
남긴
일환
##지능
어색
구워
##어마
그림자
불황
##세포
유모
건성
폐기물
인공지능
접하
니들
커뮤니티
임차
민폐
수색
##카락
동아일보
머리카락
##버그
성형
##러드
사지
정교
소상
일으켜
전기차
본능
##구역
출간
정유라
보증금
사명
##40
해결책
도모
한류
정시
들어선
대세
그럭
생애
매월
밝혀졌
##ram
부를
키보드
연동
IS
틀림없
떠올랐
##주얼
건축물
넘어서
아아
아름다움
느낀다
나선다
신재
강남구
관중
서둘러
가벼워
좌절
증정
교원
후쿠시마
이를
베르
배급
진압
여긴
백악
순하
임종
두려워
피할
파손
응시
내외
냉정
들어올
중순
선보인다
재직
처장
컨트롤
소모
##놀이
##고리
상관없이
합계
광복
내각
왕조
##수엘라
주권
##권력
붙였
실명
작자
부른다
우연
성별
갑작
여신
지저
베네수엘라
상품권
폴리
공정위
충이
그리하여
확립
척하
앞잡이
수년
전방
##ST
어마어마
차분
버린다
동향
로고
단백질
오페라
##톨릭
고가
납득
간다고
떠오
재발
거칠
##저럭
기업인
장인
우익
수위
갤러리
이라크
끌어들
텐트
울리
중산
는대
거꾸로
다툼
오케
진한
시행령
사각
부합
저주
##ov
염두
도요
1993
감면
법인세
고등학생
##동원
01
건대
마른
아스
주고받
몰아내
이마
동쪽
승용차
대왕
게재
총수
##널드
라이브
창립
주유
이뤄진
라지
추격
자화
포착
집합
사라진
깨지
언더
햇빛
거점
타협
다름없
가져오
전도
강렬
파주
징수
kt
백인
대사관
종식
소릴
쿼터
기저귀
일선
105
매운
추운
가문
폭로
월요일
항공사
시달리
애니메이션
지극
특별법
변호인
금감
내비
아녀
오마
명심
등록금
다짐
기뻐
지문
나옴
분단
오피스텔
보석
요거
더라면
그럭저럭
연세대
착공
##집트
만족도
차세대
##갑니다
원망
대권
급등
확고
가까워
명회
어벙
이집트
순이익
마늘
반란
워터
권유
주연
장성
한단
모여서
게시판
볼넷
센스
금요일
모기
대조
둘러보
할수록
##들여
당뇨
빠리
방송국
달달
징용
##걸음
안산
베이지
본선
골든
최우선
터졌
약물
그다지
추출
킬로
서쪽
정무
##드로
끌어내
##유럽
제작진
줘요
동아리
제법
초록
자격증
시발
퇴진
맞춘
관람객
리스
만주
스카이
추악
파도
온전
대여
일일이
김원
방금
form
처형
이여
역적
힐링
들어와서
영리
드러난
떠올리
저소득층
는군요
##사리
슬로
##ter
드물
편향
이대
백악관
해임
내놨
피지
날뛰
자수
무서워
굴러
##ula
찾아오
아산
국고
반납
키스
갈비
법치
지갑
변함
색도
허허
##트로
허브
##데미
재현
저능
안동
xx
##TE
##80
NH
꼽히
배고
##테일
가산
해외여행
몰락
강해
##FA
부풀
탈당
일수록
유투
는겨
임의
부재
실은
현관
라요
남양
변론
정화
까다
##지오
일까요
전광훈
돌보
170
##마크
등지
아카데미
터널
이단
언론인
말투
조센
매니저
꾸며
간사
파고
랭킹
##배우
장려
버릇
##렴치
빈곤
치명
수산
돌아간다
지붕
##ist
셔츠
연도
##투리
파렴치
스튜디오
삼진
배우자
189
원피스
이산
약화
공산주의자
임영
간단히
##니즘
##트라
댄스
봉투
##보기
은혜
드레스
야채
이어진
위선자
소집
신동
일으켰
생산량
##th
벤치
경과
개뿔
이언주
돌아갈
관심없
징징
여왕
화웨이
아쉬워
벌인
오세
내장
세균
공군
술집
발리
토크
실상
커졌
누군지
재활
꼽힌다
산출
거둔
이력
나간다
태우
저래
안주
외신
두렵
찾아볼
제휴
아하
돌아와
직면
Ch
좌표
편견
기부금
요약
폭락
잡아
헬기
뜨겁
혹시나
호랑이
폭신
운동장
성폭력
개장
설레
머저리
적혀
가맹점
삼가
사생활
표지
엄중
쓸모
떠드
가관
조현
위해선
괴롭히
안달
려고요
비결
탑승
대수
낙동강
##영화
##국수
저걸
산소
발레
임진
야기
거시
사양
1992
##일으
키즈
통신사
인체
쳐라
주무
안성
이사회
용이
불러일으
송도
결성
서방
몸매
1988
세미나
어선
원했
나뉘
중학생
상정
formula
유재
더더
토록
허벅
당은
색기
##통수
이쪽
이준
나타냈
예술가
비웃
##성이
다지
보좌관
##ㅎㅎ
공조
멸망
주범
아가씨
달아
##니스트
귀걸이
득템
치아
종업
In
상권
아랍
해용
천문
판시
##60
각도
우와
절약
##고생
역설
##투스
미달
##드라
감탄
##ac
1991
단절
청소기
소홀
서버
세탁기
##ew
시상식
떨어져서
중화
행하
크로
건네
감찰
편법
체감
끼워
은폐
##밀리
th
살아온
메모리
만점
##로리
류현진
평론
드래
지저분
##아웃
김광
##베이
공통점
보리
입금
공방
##추어
소서
러브
개개
수작
성서
한우
영주
걸림
친척
고조
어긋
시어
트로
체중
왜놈
장미
생겨서
받아들일
웃겨
뿌듯
부근
외관
차명
커녕
못지않
적대
괜찬
셔요
재학
사령관
세수
보험금
끈적
##ke
흡연
##걸리
신한은행
숙소
IP
통행
어음
종업원
되풀이
달렸
줘야지
유인
계승
면담
몹시
##차례
우정
교통부
사방
빌리
금감원
구할
잘난
놀리
후진국
누릴
미성
파헤
양측
동북아
이래도
별개
활력
상해
운항
딱히
인접
논술
##스카
신생아
백수
저널
조민
쪽발
버력
양호
더군
쏟아지
민사
치료제
이데
새끼야
##임자
프랜
경제학
폐업
아메리카
언덕
고고
집구석
거북
우물
대주주
반기
##ab
##and
타선
하네
항만
화나
조회
며느리
금품
아마추어
연이
바뀔
정해진
쓸데없
센서
종사
어쩜
##레이크
재판소
성사
평상
수량
관리자
실업자
스러움
제어
##남도
##북자
배포
주둔
비해서
서식
다큐
쟁여
낯선
삼국
혈관
라니까
들어간다
계곡
십자
오스트
##싸움
예컨대
노동부
진전
발등
교차
허벅지
동정
돌아갔
부추기
망한다
##스토랑
세액
레스토랑
FA
차트
LED
경영진
##셔널
느껴졌
망언
방영
쳐서
소극
##워드
전철
느냐는
고립
개미
쓸게요
뻔하
치워
샴푸
회색
##외선
초코
유망
각지
막걸리
생긴다
방한
어머님
침입
삼각
매진
아쉬웠
보들
선장
의약품
인자
미지
디스크
게끔
com
##ㅠㅠㅠㅠ
심상정
##셉트
준용
빠질
##가르
출력
애쓰
임용
애쓴
시야
메달
고래
멍멍
뒤통수
여파
코스프레
학업
가격대
선수단
체질
애국자
김병
업소
머무
선보인
1987
지켰
동행
텍스트
달라졌
바로잡
천사
입대
##뜨린
기둥
가리키
##퇴근
웬만
하천
돌이
줄줄이
외국어
개무
살까
의정부
빼돌
십시요
빵빵
속보
먹거리
조이
여대
천주
관해
교훈
번거
나마
스피드
보태
##교통
##경기
##러워서
암살
한다며
##바다
벤츠
어느새
봐야지
기르
후퇴
타임스
변했
대치
페르
일삼
오사
급한
실감
우즈
부른
관광지
느렸
박주
대통령령
세여
국세청
어딨
시너지
여주
오브
연루
육상
MC
납치
스피커
##ns
대략
원한다
기만
##밀히
복사
오락
카운
발의
액수
##티나
환불
보강
장교
먹방
자매
버림
어처
파라
강대
떨어진다
메일
샐러드
키트
Pr
신자
아사
라곤
자이
검진
광우
레오
##블릿
장모
##위원
어렸
사소
작작
신다
역임
세습
플레이오프
##70
불쾌
조율
달라진
BM
슬슬
우상
##급식
예언
외쳤
했으면
걸친
아일
어쩌다
흡입
책정
통일부
클릭
생성
혼인
준수
취해
무상급식
무서워서
급격히
좌석
부수
국채
단행
안락
이듬
의대
IB
경사
미흡
더더욱
수다
다시피
실효
선비
출판사
타율
문득
마실
해설
##ail
중기
접대
자니
민경
##ㅋㅋㅋ
동결
지긋
소망
건드리
우대
모지리
재해
장제
역겨운
공문
숟가락
차익
처단
속성
as
연다
##버님
막내
취한
망국
당과
기숙
슬픈
##ip
막판
##의식
##더라
찍소리
##무게
##지니어
성당
클라스
광명
치약
유모차
태블릿
##하루
##살이
마라톤
기하
정정
예산안
유적
금강산
가치관
벌리
형평
기밀
박영선
토너
##CTV
광신
그토록
을수록
깨진
이메
딸기
탈퇴
몸무게
내달
수확
수성
느냐고
날라
##리포
하루빨리
시리아
치마
셀프
중년
휘둘
##토리
열매
배부
소파
##빠진
##버트
에이스
속상
년놈
답했
보살
CCTV
링크
해법
##유예
스며
사운드
해야죠
##릭스
1989
반지
직구
##올로
추위
밀접
지상파
높일
본성
증오
이듬해
호르
첨부
유물
탈북자
##NG
가톨릭
반역
장갑
장병
크루즈
간격
청렴
퍼져
그해
베리
적화
비틀
food
지각
실세
##DP
##장난
멈춰
입혀
바꿔야
돌아다
구린
통째
양육
사흘
접어들
쪼개
야생
쓰여
취직
재수없
참나
##로드
유교
발간
천장
단추
정산
질질
우울증
쉴드
재계
농도
섹스
불꽃
뜨거
교역
##레이션
서장
한복
프로세
마운드
정준
동상
119
키운
해피
낙찰
사표
자부심
JT
세입
는디
클리
오렌
어처구니
자책
출퇴근
열등
쌓여
도망가
장벽
원금
모씨
신문사
추첨
클래스
발판
배분
제이
입힐
행운
산설명
통로
멘토
##적으로
걸러
생활비
주어진
서초동
짜장
해져서
부시
아파서
##먼스
맛스타
주역
모의
광범
휴일
주의자
상용
##실험
ㅇㅈ
싫어
##붙이
한양
결과물
어린아이
손흥
질감
추하
차릴
옮겼
이어폰
유래
##공정
종사자
이메일
마포
사직
부친
단골
머니
st
감사원
아이디
주둥아리
안겨
##stag
애인
트라
집어넣
영세
지나친
추잡
몰아가
조원
동문
말기
손흥민
일간
접목
주전
합당
잉글
다치
수차례
사시
외식
발길
물음
겸손
테이프
필드
다가가
드린다
##까봐
닥터
반해
경관
수여
##질러
동아시아
##ity
##풍기
불빛
사교육
스판
별명
충동
공신
단말
민낯
간다는
우방
자란
해치
복음
전범
구사
인듯
송파
허물
화살
데요
우월
냄비
비열
엘리트
지킨
차선
##자찬
유정
자화자찬
공자
생략
중복
도널드
##브리드
달려가
공백
제의
##포먼스
아여
##소문
올라갔
수강
퍼포먼스
##올로기
하이브리드
아홉
당선자
##새끼
승점
내다
원작
고성
##고속
강좌
외곽
vs
분량
IC
오렌지
출구
드린
나타날
추상
##연합
악수
자분
##텐데
밝혀라
사막
첨가
저서
##희정
나옵니다
DNA
모독
뻔한
기증
##스트라
스리
정년
##기야
국격
아티
우동
양극
으니까요
이해관계
협업
말려
김문
줄어드
이데올로기
만성
핵실험
나눈
모른다는
벗겨지
려구
득표
##평가
편할
재선
한텐
알파
##꿈치
애쓴다
##대기
환호
회동
지극히
##임스
유신
아담
성찰
쿠데
중부
SM
후예
보행
흘려
##보리
박멸
어쩐
강국
유산균
살인마
우드
##스크림
연일
참전
갖췄
관심사
단편
여덟
속한
우회
유착
할배
열악
이겼
그딴
그레
부류
차림
크로스
겨울철
려던
출현
##저스
리드
스토어
공무
쇄신
규범
입점
##답니다
변해
내걸
우체
미수
극심
치솟
범법
익히
자칭
##if
간지
기피
유료
정복
훗날
극히
보스
명확히
230
백두
혼합
아이스크림
##매도
한잔
우호
지루
##그라
유선
볼게요
##av
받쳐
환수
치사
블라
지금껏
수송
나치
귀한
탱크
순진
말레이
일련
마셨
창원시
1950
치고
간장
열쇠
수상자
해킹
태워
부유
##tt
들렸
북측
어둡
스파이
내신
전송
내뱉
축산
우산
스틸
쿠데타
응답자
국비
이원
인내
원형
##러기
자석
꾸미
##센스
공권력
표본
나물
날아가
만두
웃긴다
##ia
##버려
그제
장기간
##est
옥수
가담
발바닥
대중교통
악기
모형
발병
살아나
보상금
##고루
열려
김주
비스
루타
##멘트
회생
초콜
##몬드
##태우
칫솔
공존
홍수
##북도
이어서
원화
본다면
공범
놀아나
호의
타이밍
박찬
제임스
##징금
아무렇
과반
임영웅
##타운
퇴임
파격
선별
려다가
개조
##베이터
실전
일본군
국민은행
품격
껍질
FI
다투
##구장
편들
통산
장자연
엄지
##소연
묵직
승계
아일랜드
더운
불거
알렸
##조사
이석
상기
빼놓
윈도
벌여
을려
각기
체인
##하하
질투
거니
믹스
JTBC
구걸
카르
조속
되돌아
서점
카톡
반갑
잊어버
부속
욕설
인명
학년도
이례
이리저리
열릴
##연대
빠져나가
##러졌
##방식
미투
교양
기미
숙제
하필
용돈
무고
요금제
수혜
임산부
엇갈
노르
장단
설탕
박차
당선인
내란
가습
종족
이뤄질
저능아
둔화
##수기
야말로
에코
우편
관련자
충당
자립
성희
##사업
신지
토막
미성년
##검찰
뭉치
개개인
단서
일제히
접착
패딩
열풍
쪽팔리
아버님
해줘
모아서
공판
빠짐
잡아먹
##파크
맛보
천주교
쾌적
갔다
손쉽
세용
##서야
낙하
호감
이룰
미드
방울
해운대
스타트업
로켓
바짝
##시오
활짝
각하
안건
광범위
2030
애써
우아
무단
리필
볶음
소설가
수련
활기
이정부
할리
강점기
하루하루
인조
큽니다
소니
언행
거르
##병대
똥개
대인
범주
화가
찌르
숙이
괴로
질렀
미스터
아토
상쾌
그랜드
사고방식
골고루
BMW
그까
##어로
개관
급히
향했
디젤
빨대
콘셉트
단단히
가져야
LH
불통
쉬워요
저절
파장
프랜차
대문
##센터
##커녕
수질
받침
형법
분해
풀려
하트
금전
하청
함정
구당
모름
나노
진도
호르몬
훈장
꼬박
미처
카라
윌리
모험
추산
비단
휩쓸
##마토
프랜차이즈
고만
한눈
사대
넘겼
합치
논지
끝날
교복
##⠀⠀⠀⠀
획기
헌재
평일
수첩
더욱더
흐리
개신
02
끊이
서랍
대입
자비
##유산
시립
반하
탈탈
밥상
개수
상상력
친한
입문
포지
나르
다녀왔
수월
들어야
주유소
레저
동급
##니당
돌대가리
상원
중형
여름철
뭉쳐
위력
저절로
우롱
컨디션
찾아왔
해선
유방
구한
##십니다
교대
북구
소대
이니
침투
발음
해경
바퀴벌레
중세
##바이트
망상
조그만
이노
샌드
자유주의
엔지니어
떠날
##동자
저질렀
개구리
고구마
공구
101
종결
악용
민족주의
김영삼
고종
##박스
남구
장제원
OE
팍팍
스틱
놀란
한국은행
민경욱
비참
등교
상향
모공
잠들
체하
만료
북조선
맞춰서
쫓겨
해변
보름
김선
박성
사제
드럽
치안
김준
지지층
##키스탄
군주
트레
건드
여가
원대
나와야
두둔
말레이시아
히어로
보물
군산
횡단
응용
유흥
경인
극치
망쳐
베를
움직일
모셔
토로
두부
나와요
집행유예
았었
출처
불공정
밀양
셔도
##틀러
고난
차가운
후원금
별거
낮춰
착취
울음
페어
듬뿍
휩싸
으니깐
기일
크리
##OC
놀랬
잡힌
매립
헌금
카이
분포
드나
전산
강정
농지
다크
들먹
밀집
편가르
자민
AP
얼룩
너머
가르침
끈다
도출
몸통
##세이
던진
커질
SU
간직
고마워
그늘
달라붙
결함
강성
스페셜
동사
따듯
투성이
시카
##뜨려
모양새
도요타
넘어섰
빠져서
##공항
고로
보이콧
보라
터질
환원
신약
불참
요지
케이크
이경
정계
마이클
화상
캘리포
농어
걸맞
해온
캘리포니아
응대
와우
개운
버텨
쳐도
처녀
##을까
전진
##눈물
오사카
##사람
안감
정우
##박이
호도
흉내
송금
##머스
장담
그닥
농성
왜냐면
디테일
회식
내세워
각호
엘리베이터
입자
하향
실버
비누
특례
##이다
관계없이
들어도
마진
특기
협동조합
##으므로
연고
겠어요
클린턴
관제
교묘
가파
네이비
처한
강자
유난
피눈물
발색
키울
##이도
광신도
손톱
장례식
##stagram
##돌이
낙태
성희롱
대마
교재
청바지
##보들
농림
했어도
봉사자
나눌
##시설
그걸로
낭만
댕이
저쪽
발령
뭘까
광양
다니까
올려서
와야
붙인
##구려
뭉가
사학
여학생
상큼
집중력
찬스
르노
##모습
고속도
이뤄지지
##IP
사설
스캔
대부
체류
보들보들
똘마니
공로
표출
정치판
어치
무작
지름
사라질
##스틱
##기사
긴장감
발탁
##지긋
불평
섬세
휴양
패소
항쟁
##갈이
소명
지긋지긋
가액
였음
수제
공수
삽니다
폭풍
달려들
자재
오래가
줄서
이따위
정관
염색
흥국
다녀오
US
압축
마신
클렌
유니폼
세척
음원
되살
배구
이어져
내려야
기울여
어울려요
흘러나
외고
접시
메리
##💙💙
분별
우세
생색
형량
##테이너
서리
기상청
홍대
05
지형
##리케이션
박종
하원
묵묵
어딘가
의제
노골
1200
##오스
총기
개그맨
정장
도둑놈
내기
승차
좀처럼
##DI
움직여
양해
몰라요
하이닉스
마르크스
나비
검거
대리점
비방
이뤘
따름
알렉
으라는
학계
싸구려
하버
##져요
종말
창단
##하고
과하
##셔서
실려
히로
의석
박상
어기
굴리
기숙사
이케
과태
알코
쳐들
개표
##원장
##art
말장난
유의
남매
남경
이너
신어
아팠
그루
빼먹
개신교
음식물
비명
렀다
펼쳐지
##ang
제치
이쁨
김밥
소고기
관상
분과
알맞
전격
벼슬
싸울
브레이크
이왕
폐간
국왕
키웠
걸어가
특집
폭격
담론
오토바이
마음껏
멍청이
##겹살
엄벌
애미
포스터
장래
김승
무사히
달인
키워드
자외선
속속
청취
미뤄
관대
세정
헝가리
척추
유진
사재
##매김
김형
스무
바늘
다채
거들
과태료
못난
삼겹살
영문
조센징
드론
자리매김
##our
증명서
안개
LA
초콜릿
가축
몰두
강력히
xl
니트
캐스
비겁
ST
강변
리본
공연장
나랏
택지
더위
2500
오줌
출제
풍기
실습
##ill
최경
녹화
미련
놀이터
살릴
아유
이랬
나팔
##더스
산지
돌아올
전투기
김진태
늘어놓
LTE
봉지
##감치
잃어버린
동호
통영
고선
##찌감치
필기
온실
쳐넣
전월
크레
늘어
는데도
자손
장마
수감
동굴
설득력
##반대
치료비
##높이
코디
개독
폴란드
가령
우체국
평론가
아비
노숙
김장
잉글랜드
##물산
DB
추워
놓인
나이트
라고요
##린다고
보훈
지속력
전과
소품
350
치과
어짜
뒤따
그래픽
수평
시속
올라왔
수직
연비
평상시
앵커
##쓰기
래요
편파
돋보이
동점
중얼
공론
논하
구절
##개발
숭배
불펜
##브라
선원
##태프
##받이
명소
국기
올라갈
오마이
기스
추후
입단
폭넓
정동
총액
삼성물산
급락
총체
기리
##방울
아티스트
존재감
KCC
이목
선풍기
##ep
세로
초상
유언
푸르
항구
사귀
암시
##다임
광부
알코올
발가락
패러다임
오른다
었었
##성기
로즈
##금리
부역
용납
필연
##all
1986
실화
배수
으실
으이
타사
##하니
모니터링
처하
앞당
단말기
맞물
##크라
밤새
살아갈
사위
CD
로움
소나무
명박
훌쩍
내놔
리듬
정조
국외
데려가
논평
##ev
김구
선량
##크로
참석자
##까리
합창
건조기
##영향
와이파이
##출산
##라면
리서
때려잡
살균
햇살
환기
##ㄴㅇ
버터
남친
계엄
쏠리
##저트
고속도로
도배
부지런
맙시다
소린
타고
가증
옵니다
직선
우덜
올인
루수
사이드
견인
에프
앞날
지원자
바나
##크림
물결
비아
유예
발걸음
총력
분수
메가
복제
양면
적성
유한
니놈
03
구형
마루
KTX
아르바이트
어쩌구
온천
정전
##네스
부피
방통
##고사
매개
당대
태권
육박
무자
재판관
투구
포로
끓여
스프링
장거리
척결
위배
컨테이너
외화
보건복
날렸
ml
벗어난
on
휴게
덩치
타수
##타르
미미
정립
독감
유기농
전대
쌓이
신흥
무소
결집
회원국
실컷
현수
이어진다
신년
##부패
운반
##ell
용감
스물
소각
부엌
잠재력
베를린
##신문
털어놓
변태
깊숙
잉크
##90
제철
면모
전동
김정숙
길러
건들
과다
어지간
디저트
정진
채권자
천황
유머
inst
제동
아르헨
서정
홍삼
휘발
감독원
천박
시킴
##ard
학점
GDP
해골
강호
숨진
아르헨티나
호박
옥수수
블랙리스트
부정부패
부끄러움
씨앗
깔려
떨리
인문학
방위비
가드
이국
원한
임종석
교감
머물렀
영등
화두
윌리엄
득실
유성
이색
파인
관건
히틀러
조선인
관해서
로맨스
뒤져
강대국
실사
통령
공지영
제반
가뭄
타석
염증
늙은이
광산
휘두르
슬리
CN
##세지
아주머니
신청서
풍요
통역
늘어지
아지
허술
소방관
조짐
문제지
주입
항복
##학규
막혀
##테스
어버
알레
서사
강구
찾아온
고민정
배추
정했
동경
신조
폭스
##aily
188
포근
트집
프로모
과천
시일
##피탈
뻔히
여럿
느껴진다
김연아
줄게
연구자
오이
김성태
검수
##징어
모호
화법
박쥐
유보
##그래
어미
탈취
영수
일괄
마찰
올리브
OECD
다가왔
도무지
당근
파스
에피
버거
금수
조문
성장세
사사
리서치
신하
클라우드
판타
##위원회
잠정
요법
공감대
부산대
손학규
##왜란
될까요
바랄
미분
오세훈
여보
빌미
수산물
느린
수목
어린애
입수
임진왜란
동창
비호
씁쓸
패밀리
재킷
칼럼
수선
입건
내버려
달라질
유분
출고
네놈
정자
##호텔
발자
##라기
뻑뻑
식감
말미
별지
당사
누락
올라서
손수
##사상
안희정
커튼
DM
##이나
내다봤
선보일
흥원
충고
색이
##깅스
보건복지부
거제
올라온
쏟아져
섹시
허접
안드로
퍼트
줄곧
일회
tvN
레깅스
남조선
백지
여행사
맞벌이
하수인
##와이
##퓰리즘
싸이코
포퓰리즘
지역민
들러
걸어서
분유
어짜피
제자리
##재판
##PGA
까먹
오리온
##저우
존엄
채무자
전경
##드름
이현
##어스
질러
사탕
규탄
##먼트
매물
##데스
##비드
모음
대명
가로막
수거
##ttp
이화
기원전
고심
바빠
솜씨
본회의
##나물
##원지
변한
##테랑
막강
압류
사나이
1985
sns
중심지
##마다
다녀온
아미
피트
이빨
간절히
대동
기업가
함량
가위
연쇄
도라
라네
강동
원산
내용물
##AT
흠집
아껴
친문
프로모션
수영장
라던
역동
똘똘
이진
원시
납세
김명
근간
원자재
is
오너
돌려주
파스타
빨개
구로
블루투스
유쾌
자취
날카로운
축복
틀렸
저출산
검출
코팅
속국
양승
공룡
##ong
석사
떨어뜨리
할매
##보내
심리학
친화
수요자
서른
##FC
막장
곡선
http
칼라
중국어
장부
##운다
치가
잠수함
센티
고액
미팅
대리인
여배우
찔러
더러워
지민
소송법
면역력
일찌감치
만져
슬퍼
소정
창구
##👍👍
창업자
##데기
변제
기인
징글
클레
레이저
본토
더워
든다고
입체
엑스포
핸들
액정
에라
제네
미션
귀속
유능
번영
회화
흔한
개도
1982
공격수
남미
끼우
서적
유무
펼쳐진다
들어섰
주작
당당히
##페이
가지가지
밝혀야
공표
##모로
비춰
폐하
박계
약품
국악
##느질
청정기
상수
버섯
제명
브루
##일러
들으
세입자
플랜트
유병
##af
무제
레인
##스테
##무소
물어뜯
##에이
맞음
##10
캐스팅
가져왔
위태
외상
호평
##파리
와요
탐사
##우리
동등
가혹
라는데
다스리
보정
태세
여정
다이아
1984
양주
한인
가세
부임
성금
유격
접근성
김종인
궁리
코코
##자원
워킹
불륜
흉기
빨간색
바가지
112
파운드
##팡이
모녀
503
포용
따구
통계청
스러울
서브
이룩
텍스
or
볼거리
산단
철학자
번갈
라더니
재심
##겨운
레벨
고양시
익명
입양
##타리
마귀
스윙
배기
조류
##패드
간신히
SUV
됩니까
끝판
팽팽
수백만
건만
인맥
##불리
파문
ch
라구요
피스
박용
그릴
도래
혈안
pr
##공화
포수
불로
탈모
퇴직금
구실
이광
여러모로
차렸
먹히
작살
다던데
구제역
주파
꼼짝
환급
##가치
선대
싸가지
독려
##다나
꼬집
반격
아마존
증후
##주택
법규
베란다
올레
##지대
오징어
광역시
졌어요
쓰래
오케스트라
1981
물체
자처
소아
취할
경전
욕할
바느질
배척
명동
인삼
##클럽
수동
담임
쳐다
파생
러닝
##동력
밸리
코메
별루
##eg
광우병
죽여야
상시
드문
이완용
망명
애국심
##루미
##질랜드
둘레
약세
이견
객실
시한
성령
농부
기량
가늠
갇혀
정점
여우
갑시다
만찬
전문점
트레이닝
##플러스
수저
작곡가
탈세
##센티브
주축
동선
토마토
인센티브
영등포
베테랑
줄까
민망
아닐까요
치른
##린다는
구이
미일
레몬
원본
자택
어설
휴직
##규모
교민
기업체
그렸
끌려가
드만
잠자
정형
취했
뉴질랜드
개검
이세
권장
270
낙하산
꾸려
변기
후자
인지도
못함
금연
##TV
특강
했잖아
내다보
유린
롯데마트
##노스
금고
진해
유상
##전력
소액
메디
##폴리오
채취
근접
절로
특가
포트폴리오
넘어갈
겠다
신차
스테이크
각별
훔쳐
숙청
오리지
장만
질주
장로
노려
의정
헷갈
도주
궁금증
깃발
면도
도피
연평균
아까운
일본어
##oll
서열
불상
악재
원로
불화
선의
주시
##크리트
천막
치부
박태
여고
재임
연어
내국
짓밟
선착
표적
##의사
흔들림
##망이
##방송
끝장
추신
일조
남짓
쓰러지
법제
기침
크다
재테크
방면
빨아먹
##ob
전한
이긴
##ht
일리
낙선
검열
생전
대법원장
골라서
결승전
바를
##ud
권역
흘렀
역학
몽둥이
동대문
일러
경쟁자
공립
무수
상류
드라이버
응하
써먹
탐욕
세심
타이거
보답
판문
이따
에드
유관
몰입
후유
시시
두뇌
절제
골랐
젤리
레알
##위치
유비
승강
야동
구비
나리
##ㅜㅜ
쌍둥이
잘사
나발
거액
손꼽
각성
등재
개체
둔다
벅스
잡혔
260
라스
끼리끼리
임하
절벽
버디
콘크리트
고마운
에센스
사령부
푸짐
프리미어
##욕장
지면
수원시
복도
오름
들통
어려서
루이
센트
지칭
시그
##라인드
부적절
##도어
방구석
눈높이
악의
일생
##르기
민속
##타이
1983
하구
##겨울
쫄깃
신원
분자
메이커
할지라도
##기에
발부
일어서
김문수
성주
재주
넘어선
##테이션
수만
너그
어울릴
625
돌아서
파우더
줄지
신가
반문
##ive
저질러
지독
역쉬
대서
라인업
수두
고른
##본부
착오
##떨어진
##외과
봐야겠
궤도
조조
##포트
소규모
창당
설화
블로
대포
홈플러스
##비용
프로세스
섞인
민법
근절
##협회
했어야
대피
동전
패권
탐색
뒤쪽
닷컴
회의실
상속세
##넘기
고독
두들
본문
열흘
허무
##렁이
##공화국
권영
235
##PS
끝났
연안
또래
##연구
모리
박지성
시크
힘든데
시설물
성지
눈깔
넘긴
##셀러
당나라
못해서
탄도
글쓰기
볼륨
급급
친하
밥맛
방문객
머물러
##플레이션
제국주의
산다는
컨셉
모방
불길
나주
하얗
관습
할려면
카레
화보
탐방
찬다
사라져야
싸그리
슈팅
유난히
사범
오스트리아
수반
어떤지
환승
펼칠
할리우드
넷째
증후군
폭염
CG
잊혀
집필
##소드
다듬
내라
UN
간혹
책임감
깨끗이
군림
비위
연소
##에스
헤이
여동생
다각
##수아
설교
의리
아이콘
사마
이나마
외로
민트
심했
승자
##엑스
경희
국감
걸림돌
속내
##처분
아니한다
기술자
일으킬
배럴
바스
특사
흘렸
리터
지친
점프
체납
##다듬
미성년자
대본
##잖아요
애플리케이션
남다른
거늘
블라인드
정문
난감
납입
주지
생겨나
단연
##사스
유익
구독
박진
산학
이별
114
농어촌
이유식
어업
연체
##들아
거둬
뜯어
자백
현충
아바
잇달
포지션
과징금
벗어날
유서
플레이어
누리꾼
강수
##멘터리
산행
##HO
연초
인민공화국
눈감
##ff
동맹국
마일
이식
그라운드
동방
라라
용병
##시대
스미
상습
처해
상륙
입각
추신수
요령
수긍
번쩍
섞여
##프리카
판문점
놔야
도매
인위
행사장
회로
항해
스트라이
회상
배임
장시간
플로
가마
파이팅
다큐멘터리
호황
드라이브
창설
들여다
사임
보궐
오산
병우
노란색
사관
가습기
##ee
워시
견딜
열광
##자치
하도급
흔드
정몽
스탈
##기구
종편
후보자
색다른
힘쓰
개한
##쳐야
멋대로
물들
바나나
##ld
제조사
기념식
행적
중소형
볼트
행세
터뜨렸
여드름
경보
##보험
양수
단결
약관
지라
저럴
하버드
랍시고
나눴
무거워
도데
잔디
파동
바삭
아이보리
문인
포르투
전가
햇볕
사신
본연
전임
내구
한식
동국
포즈
마리아
십자가
머신
을라고
220
행장
주적
마마
서초구
##니깐
테니스
토리
성역
기질
미스트
어지럽
대성
세븐
몰이
손길
불출
세율
달라요
##가족
##베르
리바
가꾸
직위
옮긴
망설이
악취
낙관
대담
리버
승무원
세울
과거사
안다고
투기꾼
앤드
미네
쇼파
##찌개
환송
오디션
의향
인대
하와이
##ub
학급
민영화
소수자
이면
휴전
걸린다
출세
소폭
줄였
사업가
불문
코메디
묵묵히
불어넣
필립
예견
흘러가
챙겼
시어머니
돼지고기
##김없이
노스
적금
경부
장난치
##랭이
자정
권력자
초고
여행객
설명밖
복장
국한
울려
이의
눈썹
##막이
노화
수건
판교
##발전
두려워하
문체
이시
##서구
모릅니다
서원
피터
우라
도마
매콤
요기
금세
어째서
순한
상점
내려갔
불러서
##사실
##베리
1979
인질
한발
재즈
터뜨리
증거인
입안
광경
사주
꼬마
06
기다린
한몫
변비
사회단체
안락사
통통
문법
무더
눈부
엄정
이온
맥스
텍사스
가두
로워
윤지오
슬라이
깨져
국유
수없이
뭡니까
소식통
노비
묘지
끌어올리
08
수비수
ICT
극도
결산
분립
정돈
##어가
남북한
냉전
성남시
##TS
산악
##무니
부엉
기습
##생긴
펑펑
잠자리
단기간
186
잠잠
기념관
##오리
펌프
도데체
##생명
생물학
옥상
대두
인양
진다고
굴욕
세자
대란
대림
몰수
공매도
사이코
탄산
포상
엎드
집어
매끄
DJ
침착
소리쳤
LCD
여겼
모른다고
04
아인
연내
공용
베풀
##디움
us
##야마
주심
만행
다카
진짜로
김원봉
돌릴
동요
보호법
열망
페미니즘
오키
명명
세비
102
캐주얼
조서
타결
앉혀
달걀
격렬
노회
찾아와
휴지
중증
친다
수두룩
컴백
시동
시드
차종
내재
강물
요란
늘릴
시바
##납니다
묻혀
왕실
포드
프린트
다녀요
밀도
총살
넘어지
분홍
연산
분비
글러
##민석
사거리
접종
부드러워서
로버트
예매
360
덴마크
국사
미분양
잡아가
난방
홍성
깔창
##ook
단합
김희
카지
구기
아세
호칭
실린
공과
규격
하락세
성실히
텃밭
설령
날씬
긴밀
정반대
쫓아
##고속도로
가져온
양키
휘발유
언스
후유증
##소통
아디
사탄
순방
##ian
##제철
학사
나이키
목요일
수요일
마술
중앙은행
김창
살아왔
포켓
해냈
구했
통찰
풍자
선점
내편
걸까요
당도
입당
왕복
스터
못된
부담금
올라와
방과
증폭
안티
경협
##사이
호재
더군다나
불린다
정의연
쿠팡
사치
내년도
##겠다
보건소
호가
엄한
비빔
##시효
##ial
하나같이
요한
무심
다더니
##ine
어긋나
박병
##부모
##LED
방가
벚꽃
타락
계셨
할당
불능
재빨리
##무실
넓히
바이올
지기
권익
차이점
불려
의사소통
물자
경연
엉터리
남산
스티브
뒷면
의거
모스크
요번
1978
쌓인
각인
불타
종로구
영재
소변
스타일링
##나와
담합
성동
투사
나뭇
하인
임대차
고모
##ak
실재
로또
정보원
멸종
싱크
한중
개탄
조별
늑대
주어지
진이
꺼냈
##OS
온실가스
하차
##커스
에피소드
철면
가설
어쩐지
피난
저승
187
##월드
변질
삼성그룹
##베스
웨딩
밝힐
은근히
내세운
니스
성전
제대
습득
측은
##데이트
##퍼런스
주저앉
깨어나
돌아섰
끌어내리
넘어갔
##팩트
이끈
매직
계집
문화유산
장외
취재진
증설
화요일
경감
대역
반값
발열
한국전력
##AR
시당
상단
표결
고비
할텐데
MS
살인자
##레나
어땠
조립도
글고
허공
품위
효성
시위대
기꺼
아휴
불의
주스
양현
시멘트
적화통일
철새
까불
업데이트
살포
비대위
후계
알뜰
아쿠
해준다
안쓰
불법행위
재래
녹차
프레스
으냐
의아
후안
내정자
도당
여력
wh
##tbc
사촌
전향
실형
현혹
파면
##뉴스
음란
국산화
최태
한대
끄덕였
영양제
풍년
증자
실로
산물
김윤
아플
칼로리
갈색
맞췄
산업은행
아이러
##부르크
낯설
kbs
저격
##렉션
반신
충전기
입소문
본데
고아
원판
제작사
튀김
쿠키
맹목
보안법
전례
암호
##화기
기용
합격자
붕어
구려
용의자
표방
하태
강용
종양
노년
웨어
오스
포크
하하하
난다고
신용카드
수필
적절히
##킨다
##ER
모자란
동거
보온
맞대결
원룸
의의
내포
내몰
예보
항소심
살살
##티지
푸틴
##배추
아웃도어
개똥
게스트
복지부
무실
알렉산
알아듣
무너져
복권
돌연
모던
##여겨
전념
일거
줍시다
무안
궤변
친근
삼촌
조공
##소시
쇠고기
친분
유저
##장구
목숨걸
이스트
##키퍼
이장
보낸다
진다는
출원
모서리
총무
이창
기껏
접한
재편
왠만
드래곤
유령
수사관
책장
드러낸
##OU
받아들였
적힌
생명체
세안
토종
전승
한다니
넉넉히
경품
도우미
두드리
##ore
전전
직시
골키퍼
박이
호전
범법자
호환
##공간
앞쪽
바닷가
취업자
○○
유수
즈음
이대호
속초
네일
무당
넘쳐나
반감
국책
사채
이쁜데
얘길
심해서
약사
악랄
무너졌
발기
클렌징
daily
경제력
다신
철면피
달빛
따돌
미혼
남양주
박인
대도
수표
와도
가져올
응징
##플렉스
원만
분실
보풀
일수
기다릴
눈여겨
손발
망가지
요렇게
##줄기
수료
썩어
you
당국자
급감
질까
##꼬리
늘렸
빨강
경로당
##위병
넘나
FIFA
고졸
따까리
돋보
저마다
##지도
박해
바꿔라
부가가치
내려왔
OOOO
먹일
가이드라인
방북
대위
액자
순차
전단
야구장
연예계
결실
기꺼이
교리
##숭아
에이즈
공대
신다고
욕실
구매자
문단
남발
자아냈
임차인
슬로건
연기자
양치
상판
나와도
##프리
##서스
구민
국론
바꿔서
뜬금
요가
챙긴
전작
데이비드
##겨서
적시타
증가세
어휘
Th
효능
담화
두세
띄우
각광
침범
##진보
밝혀진
단군
진행할
니라
노랑
로선
옷감
부끄러워
백종
혐한
실존
돌봄
수십억
왼손
헨리
코레
시공사
자궁
##리안
셰프
춤추
##ue
주당
정제
담백
원목
넓혀
lg
판례
신음
라든가
카리스
##갈비
자초
퍼트리
떨거지
##래미
문헌
빈번
이루어져
개원
항일
정숙
겹치
샤오
여아
조형
각서
쿠바
##라이트
파급
부평
박혀
프린터
무방
틀니
찬반
나아지
본점
핀란드
주워
가처분
참담
책임질
담장
현미
방송인
HD
과대
##재단
존속
쉬워
경쟁사
호흡기
국지
헤매
유학생
##ung
##려면
STX
쓰리
루트
편드
사우디
신데
##ure
영화관
로스쿨
##키아
1930
안드로이드
박살내
불명
수유
버틸
국력
훈훈
노래방
샌드위치
외무
폭파
남길
소용없
분사
장남
포르투갈
다고요
역풍
볼께요
명함
토해
정한다
##천군
정준영
상임위
자작
매끈
염치
발사체
실책
##소시엄
문어
특급
현대인
야비
문경
김혜
합산
컨소시엄
클로
장하
관내
정치검찰
##훈련
질의
보류
##우치
한들
인신
##ort
문희
물어야
거듭나
##벤션
이뤄지는
한껏
윈도우
사이다
설리
##iet
들어라
드러난다
양배추
스노
능동
사옥
역세
스타디움
줄려고
굴복
본체
야심
모발
더니만
생김
희대
도미
직결
결사
송이
카지노
시흥
부러워
항암
올라간
##iz
철판
의구
자책점
스티븐
절단
썩어빠진
감금
한없이
##TO
응모
##사랑
참치
토양
현수막
##십니까
곤충
성원
퍼부
유총
둬야
막힌
##ect
테크노
목동
트래
정적
가미
수억
벌어질
해수욕장
이송
울릉
누워서
총동원
견뎌
골수
군민
군단
불허
##신저
시카고
김인
인텔
전일
절정
농수
죄책
심층
##글라스
에버
가릴
군사력
원격
해답
시궁
루이스
풍력
상반
##IC
##저나
비씨
빡빡
다네
미학
팔린
카시
민간인
컨벤션
소박
지나갔
근성
종속
서운
카리스마
돌아간
나불대
박통
박힌
본보기
##뚜기
이즈
결여
라이벌
##ith
기강
간과
하자
행해
톡톡히
제왕
내륙
부려
화산
차입
여느
원동력
신영
##법인
##광역
다시금
때렸
그나저나
KA
김한
증액
병실
다정
김학의
골자
계파
##징글
안목
운동화
불렸
거창
노동력
반장
심신
청중
세이브
사나
튜버
무너진
데스
징글징글
배워야
주춤
##은색
냉면
병자
스며들
절박
오타
지리산
틀어
갈래
♡♡
유희
과열
전장
##균관
환하
낙인
법학
에릭
보이스
하사
SP
스케줄
최우수
테두리
외쳐
객관적으로
웹툰
증서
행성
좋아합니다
##지우
헤지
##오래
옆집
가슴살
방출
자구
순조
뿌린
행렬
##ert
조망
쌍방
디즈
자이언
배신자
유대인
개망
거침
성균관
스태프
소행
교단
노망
의구심
##폭탄
명상
그러다가
노태우
만물
미생
상응
전차
##내기
갱신
영하
강진
마음속
철폐
모듈
산재
남동
몰렸
줄께
틈새
여진
다저스
분식
기뻐하
버블
당뇨병
미얀
결말
택하
이은
상급
호조
남측
동인
반가
지켜봐야
싫어하
체온
감격
##진보당
다뤄
경지
09
스톱
나을
메이드
자행
거래량
중진
어울려
목걸이
##에르
동무
건설업
독립운동가
재차
자각
후반기
당면
현존
판타지
알릴
망친
김세
미인
중위
종교인
설명대로
명사
ET
##치소
배민
내전
세계관
슬쩍
반공
부흥
##ib
##경제
폭등
입기
구석구석
손녀
##벨트
레이더
김여
노라
흔하
어묵
쓰레기통
반증
##준호
승소
구겨
복직
아이패드
내쉬
sh
123
1973
함대
퍼시
##올랐
1976
프란
어다
염원
매크로
섬기
통합진보당
유류
드릴게요
##병원
복종
나날
스폰
체형
거둘
1945
약탈
##지기
외형
이태원
심재
홀딩
보컬
올스타
##실히
발동
알루미
태어날
어버이
그쵸
연하
선심
외교관
무작정
불당
미숙
접전
김부
였으면
치켜
파란색
종아리
이뤄지고
펼친
압승
스마
고부
헤쳐
125
임마
능가
대교
무궁
퀴즈
회고
슬리퍼
추한
누드
ㅠㅠㅠㅠ
풍선
잔액
몽땅
목회
캄보
고찰
라지만
벨기에
들이대
가급
정선
치를
보인다고
코어
세르
질리
갈까
심히
한라
마음먹
겹쳐
화끈
매스
쇼트
108
위함
똥물
방패
정주
괴뢰
들린다
이이
곤두
사계
스캔들
김남
타고난
우량
평안
챔피언십
지롤
들먹이
##통령
전시관
트윈
영수증
##셔야
모를까
시궁창
트레이드
지치
부의
아작
소진
오래오래
추리
세단
아테
우두
다간
승마
신다면
##어서
군중
의전
##금자리
두꺼워서
민자
후임
보트
독창
수박
장터
##MC
115
다던
보금자리
부르짖
재물
프렌
김천
이방
코르
화자
가진다
구인
눈치보
할께
280
사려
내시
노르웨이
농축
공모전
저조
박사모
월등
리우
한시
막론
나부
교직원
결재
사이클
하노
찌그러져
아재
던데요
왔어요
최성
공예
서재
알루미늄
내세웠
희미
마나
딸래미
포부
##IS
SS
특구
##라미
청계
귀중
무신
계몽
부탁드
대꾸
칭송
1975
원서
요런
무성
완장
##댕이
김두
뭘로
타도
멜로
문항
111
권하
뒤진
##ant
지나간
맞붙
손질
대표단
가급적
호들
광대
어학
한기
검색어
상하이
기다려야
VIP
까발
##사태
주상
글구
카카오톡
발랐
##모토
청량
아모
##부진
저감
헤어지
상여
살펴볼
손절
천문학
실증
터트
견주
오리지널
아이러니
도자기
삽입
쓰였
명백히
물갈이
드려
후드
챙피
산다고
일찍이
퍼졌
내려온
끌어들이
컬렉션
당한다
불복
캄보디아
뻣뻣
##어붙
세계인
쓰러져
털어
보직
정중
##철도
붙들
하태경
라시
회의소
수납공간
시력
택했
차마
국제공항
울타리
온다고
발톱
New
수염
커진
라운
본국
양질
떠오른
아연
매너
마땅히
비법
##ate
텐데요
소량
스러워서
그물
호스
축내
파시
이산화
자위대
##버렸
매트리스
##대교
색출
안함
##ork
부턴
##ll
##세우
무마
떠서
##뉴얼
민선
178
바이어
실검
끌어안
치렀
매달리
요동
는지요
워치
ww
찰떡
강용석
가부
증여세
다이아몬드
조경
그러게
지쳐
삽질
수순
##모니
유가증권
찾아갔
일명
이용객
직관
자선
달라서
KG
지질
르네
##축구
신주
방사선
과언
##티아
##화물
무너뜨리
맹세
왕비
밑바닥
쓴다고
두피
후세
주파수
본관
움직였
고함
185
기단
공청
외계
붙일
##돌아
통풍
까라
경악
그리도
수출입
데려다
박재
양승태
나폴
흡사
빌라
##LS
영부인
사외
원치
TK
습격
주니어
숙명
문예
걸치
성장률
호들갑
랑께
계통
자가
셀카
제형
245
울산시
발정
증말
무실점
구슬
홍위병
망각
##패스
불사
##라이언
악영향
못사
연재
개량
느라고
##런트
무얼
나팔수
##허가
밀가루
따랐
175
도끼
필라
용사
싸웠
##러스터
피크
비주얼
##드라마
##코드
죄책감
돌려받
다자
후지
마차
위쪽
승격
모처럼
동탄
동산
위인
수영복
신났
im
은하
물어봐
WHO
미약
자랐
위헌
까스
잡것
순찰
잘나
개막전
음악회
물려받
헤아
모닝
##총액
해병대
클러스터
참여연대
07
##ment
시가총액
어두워
복판
한은
날조
일깨
사용법
점거
국영
거스
찢어지
찐따
팔려
책임져야
손색
준다면
##ain
세라
지탱
450
거려
버락
정례
인민재판
왕창
기관지
##베트
##ly
상선
심부
라틴
몰아넣
차츰
##들인
아크
안장
##잔치
PR
아치
진열
출하
##라야
크라
친해
청결
굳건
나뉜
모토
코오
반항
지날
을래
자치구
1920
보호자
운동가
지으며
아파요
good
연방제
리콜
다방
##디스
##순환
대출금
받들
##부림
홀딩스
김호
원상
친절히
##퍼드
기승
사육
보냅
업주
분주
소론
심보
관례
##버거
미주
무분
원주민
서슴
하의
힙합
김유
막연
옷걸이
신곡
악법
교포
퍼시픽
몰카
동반자
박경
허경
시킨다는
매뉴얼
조수
스코어
애완
코끼리
드세요
충실히
반대편
환산
##박혀
초밥
특색
메신저
트랜
붙여서
근저
레시
미모
영사
강북
지방세
힘써
이승엽
무형
불어
정류
황사
EBS
##레이터
팬츠
카타르
거슬러
귀하
성급
미역
각계
극한
미끄럼
로우
뒤집어
드셨
조영
안면
쾌락
짬뽕
운수
##단다
줄여야
싸지르
파이프
연구회
왕위
성기
갑작스
##나리
김미
고등어
##텍스
북방
##ast
할땐
도적
호로
에르
##코인
국수호
호위
복숭아
구자
육수
형벌
적반
저술
체면
밀어주
진통
##마리
백종원
경원
##DA
시련
모비스
어려우
강전
댄다
##업소
코오롱
눈동자
포천
이브
##르타
생수
함양
징그
은행장
농약
제게
##시스코
익스
정가
일어난다
물리치
조개
방관
풍속
VR
홈경기
지오
선글라스
성도
##배상
표절
나열
장본
유재석
저해
de
남해
비관
연전
자력
도정
자생
센치
일화
서너
삼청
고령화
유럽연합
고영
최장
들어설
매사
대공
##상부
전세금
오인
경신
이기주의
발끈
이소
온전히
감행
수식
립스틱
리뉴
속한다
검찰청
##ich
월간
성과급
1974
이루어진다
쉼터
튜브
##십자
대의
종신
##광역시
말랑
시아
임박
##슬림
TF
하단
털어놨
매몰
##루스
##하장
연임
저분
우뚝
숨지
상부
고위급
사요
호투
아이언
트리플
내줬
잉여
대지진
갈리
문신
균형발전
가야
##커트
미묘
##필더
배움
##관광
넘길
미쓰
103
미드필더
##느니
수중
액체
라든지
기고
판도
냐구
난무
애라
볼일
적반하장
모스크바
드려야
는커녕
두말
##깨비
부엉이
무슬림
조속히
물러서
때린
구김
싱싱
알아차
불출마
이양
강당
여하
직책
인분
세워야
퍼뜨리
라떼
씌워
여군
건데요
부위원장
요시
##ight
침공
독선
예기
해리
서문
희귀
해역
조여
목적지
표창원
장편
빅뱅
처우
양도세
장차
디언
휘둘리
경합
꼴찌
태생
숨겨진
신의
벽돌
##마음
pc
아드
망원
##거래위
피드
공정거래위
축사
야마
아토피
대승
##웃음
무진
플라이
육지
계약직
어항
준거
찬사
다급
저급
세분
평면
##oT
피부과
CNN
원산지
곧장
처참
조선소
그려졌
절친
스와
끊임없
NO
안보리
초조
후려
극찬
지회
이제서야
런닝
##😱😱
생산자
점퍼
여라
쓰일
노회찬
촉새
장애인
가면
영동
##라비아
타깃
보너스
순례
로다
방화
165
둬라
끓이
바르셀
을걸
똥줄
바르셀로나
베스트셀러
비트코인
급기야
##도리
대표자
총경
안민석
이루어질
스쳐
www
땜시
Un
모가지
성조
조업
공산화
##AE
##꼬박
CC
찌푸
신속히
흘러내리
의병
칼날
하소연
##뜨릴
미얀마
be
꼬박꼬박
##하이
법상
미필
##듭니다
고무줄
내려서
색채
사회악
메시
도울
직종
선착순
번들
반듯
휘말
잔여
처사
고소득
필수품
개발자
머지않
이인영
연한
숨쉬
##ies
관철
열람
경영학
무례
전성기
띈다
자연스레
송구
양대
일탈
인출
##서니
질타
약해서
서두르
극좌
비우
골퍼
장애물
올바르
품종
사각지대
참신
챙길
공명
##중간
어떨지
아리랑
상거래
##IST
안마
여서는
대타
##퍼니
##네스코
##바꿈
##금속
직속
365
수퍼
국무부
경희대
쓸쓸
식기
초라
도루
족발
1972
체조
계십니다
거슬리
이윽
손해배상
딱지
반론
LS
전문의
비준
가뜩
한판
쏟아졌
존슨
신뢰도
인해서
입주자
한상
우려먹
아사히
가늘
##수리
최정
##EC
아부지
평준
여행자
것다
선한
일컫
정대
무분별
##ㅇㅇ
공채
볼모
반입
신작
판국
인선
뒤덮
홍영
달라진다
##어져야
교향
처신
##립시다
기점
편찬
##프란
IoT
원소
펼친다
김건
명제
까다로운
깜빡
특보
힘없
세례
##세서리
발산
즉석
총독
남로
이건희
몬스터
파울
태아
들려왔
이윽고
하남
햄버거
##국방
루즈
몰려들
올려야
치졸
각본
마는
미워
##저냥
희한
##12
송파구
구구
전처
터무니
딸년
코믹
##네마
얘긴
중추
충청도
끝없이
##퀘어
거쳐야
치욕
연탄
챌린
##se
공교육
다이어터
트랩
##숨에
##블리
단숨에
리니
따른다
뉴타운
선교사
원회
찰스
##이치
LNG
따라잡
유네스코
시책
MV
앞섰
빈도
밀어붙이
수십만
고안
##티스
쥐새끼
##ike
놀랄
두려운
만난다
번개
제지
내려다보
ㆍ중
모자랄
공소장
쓰인
잔재
##기름
수조
아무개
실속
음향
가뜩이나
유나이
산타
다닌다
##우마
곡물
끼어들
##그레
서비스업
만연
인민군
좋아해서
외우
우러
사다리
슈즈
태영
컨텐츠
유나이티
워크숍
알레르기
장본인
메탈
면서도
정재
jtbc
당해서
ㄲ들
찝찝
추이
퇴원
홧팅
어느덧
강기
찍힌
아세요
자중
넥슨
봉급
속출
한데요
양복
1300
그르
아키
놔라
쫀득
포격
권총
댕기
그냥저냥
짜장면
##ear
하룻
완치
계획서
미친다
##전히
경향신문
자릿
책임져
한옥
배워라
유급
파고들
이민자
미용실
동학
쌍욕
##현실
관리비
반칙
##OP
양형
멍멍이
착화
되새
스탠드
세속
야만
OLED
상이
부응
제소
어부
그럴까
띄워
부결
인들
외제
최애
부제
할라고
사당
생소
장원
시연
포위
사살
틀림없이
재혼
컴퍼니
악순환
어찌나
머무르
거시기
##무가
결선
마력
떠넘기
유라
열사
도어
단과
고품
스트레
고분
##무치
외압
발자국
의존도
후계자
물러났
서부터
비박
차명진
SC
건넸
폭포
본색
떡검
184
촉발
번방
##자유
기관장
맡겼
군복
현기
드로
높인
라이온
피력
어스
편했
##orea
##더미
와이어
##ran
번식
1977
경성
에미
가식
영위
##삼성
선다
관문
1800
법위
##생산
다친
차등
마법사
KO
니미
상도
간질
평창동
정해져
경량
카시트
문턱
강인
옥션
백작
누설
시댁
형광
취득세
##국적
계약금
하마
##연맹
레스
탁자
스케이팅
내심
학창
##공단
올린다
청구인
##ry
소굴
탈바꿈
체코
##uc
유승준
털리
대우건설
침실
찍히
예쁜데
화석
XX
안일
샤프
경제성장
일회용
가디
아랑
본받
사용료
놨는데
사춘
##up
놀러
두꺼워
KE
디즈니
접할
돈벌이
바램
##18
1965
못한다는
쉬웠
이룬다
조처
소홀히
소소
늦추
습지
스팀
비만
국공
아다
자주국방
구급
윤기
외롭
뽁뽁
브레
페인트
형국
수신료
땅볼
정쟁
잠복
기종
기수
2022
##테르
##업자득
아래쪽
중고차
뱃속
두어
자업자득
통닭
나세
엿볼
퇴장
중원
항로
펼쳐진
여간
##테면
뚝딱
닥쳐
급속히
물리학
##무늬
김관
버려서
상봉
돌린
리바운드
적국
거치대
##ge
소방서
구조물
과감히
얼어붙
##체어
라우
지겨
##ust
사용량
파키스탄
경산
권단
사용자
아이구
갈아타
여적
알선
바비
일개
정세균
이호
콩밥
시종
충무
예년
일안
끈적임
강했
오메
##용지
안도
여행지
기웃
출발점
단맛
대면
묶여
CS
고마워요
기쁜
해낼
##음질
일전
기력
차갑
묘한
통신망
대령
였으니
코엑스
의왕
효자
마포구
드러운
이만큼
기획사
욕해
행정관
##AS
오른손
금원
##절기
창의력
##프란시스코
제때
가리킨다
허구헌
만장
마니아
샌프란시스코
세밀
굶주
휠체어
비오
수천만
충주
an
드럼
이바지
의논
벌일
104
킬로미터
부의장
마틴
순회
라던데
부칸
세일즈
차근
필사
개고생
앉히
렉서스
An
No
올라간다
됐었
깨져서
방조
섬나라
깨달음
##러웠
##길래
재량
##무사
나미
속지
트라우마
집들이
늘어난다
사절
돌려서
최재
청나라
전화기
##기지
구치소
은밀
놔서
##TN
칠레
CBS
더라구
로울
됐으나
화분
이준석
카키
북송
주교
듀얼
잇따르
테마파크
스위치
##ical
운영비
무명
현저히
##그네
판단력
처넣
리치
요정
급변
##셔리
##무새
선봉
암울
럭셔리
맞물려
남이
지휘자
매춘
##답시고
##러미
집행부
일감
불고기
항변
병들
적임자
소란
실크
릴레이
왕성
목재
어김없이
오키나와
중량
큰소리
로열
막막
진공
두리
##하늘
움켜
그런다고
만끽
도왔
1971
##바탕
##암동
물러가
찔리
국보
신봉
보수당
이를테면
##차림
##ice
건전지
135
입주민
##저래
설쳐
다발
친숙
올게요
##면적
Com
동명
by
데스크
발발
깜찍
대명사
진단서
모텔
자루
기색
몰라라
##나니
고마움
원판결
##운용
usb
이강
즉위
아우르
잔소리
관악
장년
추궁
깡통
상회
숙여
근저당
##제이
팔렸
뚱뚱
선반
##ollow
리아
참패
초미
##ey
다운로드
원안
해내
꼬투리
사춘기
숨졌
속해
벼락
블룸
그러다
휴업
횡포
변환
도망치
구수
사계절
받아
지주회사
후면
##수지
낙마
나기
팔꿈치
나랏돈
처절
껍데기
속아
##내셔널
체리
##특별
둥지
르노삼성
적잖
쪼금
입혔
생체
##자재
##게임
장이
심혈
고위직
이철
계세요
선설명
얼만
죄지
되돌려
인터내셔널
트윗
취업률
대남
색소
가전제품
대나무
##슈타인
다중
하드웨어
183
코칭
기관총
광기
비벼
매달려
자나
YG
깊숙이
공사비
발족
반신반
밀크
어지간히
비지
청도
별장
교안
연차
이질
흑백
여과
도산
관통
미워하
##때로
지평
화랑
공법
살린
연주자
등극
팽창
돌풍
일류
내셔널
낯짝
올려라
서산
오지랖
##어져서
맥도
승려
##11
따라야
##십시오
##오카
줄인
말살
##다르
신진
제각
힐러리
145
이토록
관직
당파
눈먼
짜르
눌렀
후안무치
헐렁
##란트
방대
피디
월남
부녀
설거지
완수
큼직
고운
변국
##비치
이어받
##승환
심포
##ass
둔갑
##날레
판치
물놀
충만
수익금
토토
바울
이산가족
신정
최민
야근
양평
내려와라
응급실
의료비
경기력
속여
집권당
중상
자자
학비
위촉
주공
관리법
시내버스
분화
징후
세법
##평균
보스턴
나와라
동물원
두들겨
구태
추대
선상
1600
들려주
공청회
지낼
마블
아니야
잔당
결핍
자의
끈질
멘탈
쓰러
활발히
누렸
혹독
전한다
나락
시조
##드레
타구
이북
김우
빈부
즐겼
갔었
최하
브이
기울였
1968
리오
##배기
매경
꼭두
한결같이
위자
##휴일
물려주
최저가
어야죠
운임
실험실
감사히
##end
갈기
비시
##리학
연명
인플
드신
땅콩
생각난다
동그
계발
우째
보여야
맛볼
젖병
창궐
따를
배드
전시장
수갑
본다고
게으
말미암
포스팅
폼페이
여관
총생산
거머
큐브
지중
이문
인플레이션
후대
무주택
국밥
빌붙
##당초
개막식
손익
하룻밤
sk
휴게소
다우
백두산
조끼
가져와
김은
녹지
공황
파나
달아나
볼려고
##꾸라지
회사채
잇몸
흡입력
윤곽
한단다
샤오미
스릴
스폰서
냄새나
구마
태종
노벨상
강압
실수요
##맞춤
악몽
밝기
코앞
##줘야
최진
삼척
뒤질
##예술
과반수
흡수력
여친
봉건
블리
이정현
다국적
초토
##도르
수용소
##아래
알차
청아
일차
가평
식별
조종사
자폭
생가
##페이스
서영
찬물
날까
진흙
소양
로라
dog
인파
신빙
무공
호화
소인
갈아입
발작
##내려
ㅆㄹ
마주치
AS
질책
당혹
고스톱
##바리
177
분장
일쑤
지름길
들으며
효소
표상
벌려
그름
개꿀
인심
본드
이회
비엔
저년
속담
라임
예감
가든
오디오
방구
반신반의
개망신
로맨틱
가닥
단풍
속셈
뾰족
웨스트
감리
귀환
승률
나지
생사
리비아
제격
##구름
대책위
재일
##나가
부득
집요
과격
이규
궁전
아우디
##버린
정치가
그지없
우측
재촉
국제법
버젓
느려요
선가
테라
인방
계산서
##IT
##튿날
##이자
옮길
북극
마요
미화
차린
면책
다녀야
검장
##산성
##타임
렌지
피겨
남아공
손주
##MA
건너가
데로
준하
##여대
##틀리
밥통
유영
폄하
속삭
반기문
직영
낙후
였으므로
혈통
증식
##릴라
회복세
잊어버리
기동
비워
어필
이튿날
연중
다릅니다
경정
도태
세리
인아
거릴
오라
껴서
대덕
문희상
맞출
소송비용
북유럽
땅값
오랑
중성
##고래
마드리
위계
##곡동
팔레스
수개
완성도
글쎄요
공휴일
칼슘
무더기
자릿수
정류장
##스트리트
말소
리처
사라진다
박시
한테서
OS
독립군
몸부림
산수
액세서리
원점
건방
발암
##듀서
애견
시뮬
웰빙
고딩
나온다고
묵시
조계
반쪽
래도
업무상
수레
프로듀서
사수
성품
벌떡
아군
##봐도
꾸리
신안
방콕
빙신
상국
##가짐
거트
128
쭈욱
마드리드
KGC
##도전
누이
펜스
꼭대기
도보
바쳐
문제없
대일
107
유유
미끄러지
원사
조져
자산운용
구르
뒷전
호호
계명
최영
그래프
관용
국도
퇴사
기념일
빼내
통곡
반경
가래
박세
최상위
콩나물
근심
퍼스트
홍익
파병
운전사
꼴리
찍찍
할라
서인
##olog
결렬
나흘
냉각
서귀
갈지
내려라
적립금
거쳤
추론
CP
일주
반짝이
흐뭇
양정
내려앉
AT
쓰인다
쓸려고
융자
박기
기득권
느슨
몰린
칭하
들인
선팔
외래
##어냈
베드
아세안
꾀하
용접
굽신
말없이
정현
##따리
밸런스
하야
정사
다구요
친밀
러지
##바라
벽화
179
개인전
임야
우루
캡슐
뭔가요
##메이
거주자
파랑
이화여대
OK
스마일
고충
낮잠
복면
부담감
정찰
##버섯
##닙니다
시전
그치만
섭섭
가르쳤
지럴
바뀐다
묻히
개업
놨다
덩달
사투리
모자이크
헤라
여타
밤낮
it
군포
대마도
종가
##ond
쓸데없이
##포터
이라든지
해봐야
노령
팔레스타인
아쿠아
##그러
짜릿
채웠
대졸
유격수
선호도
마카
히히
울렸
은메달
터져서
오찬
부가가치세
##ack
그제야
범하
무한도전
불러일으키
막바지
편함
카운트
##상스
영도
곱창
다쳤
서강
##캐피탈
하찮
원흉
라벨
요하
끊기
야단
미생물
부지런히
배낭
인지라
반가운
퍼붓
벼랑
총사
해커
멸치
다룰
문학상
허나
다다
아테네
이보
애도
스텐
평정
선보여
##지우지
졌으면
스퀘어
송영
검사장
##멋대로
좌지우지
👍🏻
일간지
청담
159
툭하면
연못
현주
깁니다
수자원
거미
무색
재화
잔류
미러
촘촘
카피
혼돈
살인범
##베이스
잔혹
죄질
흉악
유태
산맥
하계
YTN
MVP
##들였
해야함
장보
보료
##수원
결의안
가열
카트
태백
리베
이희
주체사상
##수아비
엄두
쓸모없
알아주
박명
즐거워
점진
콜라보
행방
허수아비
106
올라섰
1963
##무라
공갈
불순
본다는
월스트리트
뒤흔
아메리
1948
벌벌
따라오
210
서귀포
한통
동메달
ES
광교
혈당
명나라
비켜
야스
##마켓
소동
보따리
만회
나스
##자유구역
1400
##세기
##공격
북경
소사
추월
면치
똑똑히
알아들
엿보
섭외
##재현
타국
래미
##hy
뽐내
치중
155
독주
워너
부두
밝혀내
빠짐없이
주된
구출
볼까요
해본다
1900
실밥
잡스
너거들
까마
꼽혔
꽁꽁
숙성
넘버
평화통일
심야
파이터
##IG
경제자유구역
##레일
##올라
노원
자급
무거워서
외장
시사회
##무진
챌린지
조동
이뤄져야
AR
알림
리라는
참배
인디언
##퇴직
애널
박주영
1969
아우성
3500
##하라
엣지
한파
##비어
동성애자
태그
##전지
분신
조선업
나인
절도
차체
뚫린
본지
성모
##불위
반반
변할
불씨
왔었
다가올
하물
담겼
CGV
비장
앞바다
연세
폭도
시녀
##일드
##보잡
못한다면
애착
환매
검경
아따
사령탑
폐해
지휘관
짝퉁
경색
올겨울
회귀
노조원
109
엄연히
니콜
멀리서
사회학
페달
통틀
레지
접착력
에고
대열
동호회
박음질
태안
끝냈
한탄
리모컨
현저
##맹이
펜션
반역자
도깨비
부딪히
편협
레시피
민변
통사
만인
성욕
균열
소관
르네상스
배변
다거나
역점
두목
연평도
나눠서
ㅠㅜ
##모비스
전체주의
##차근
때때로
짝짝
현대캐피탈
부역자
듣보잡
대의원
경비원
##치산
##ark
현대모비스
네오
들으면서
차근차근
할망
니나
외야
중장
잘라서
교육비
남동생
루머
베어스
근래
내린다
엔트리
요것
##ri
오리발
램프
본회
성조기
뒤졌
직인
김신
##집행
PB
제인
이점
리원
신전
나아갈
벌어들
변모
히어로즈
##짜기
BBC
피싱
물기
맡길
##승부
##각시
트로피
후문
##거림
투신
일진
거림
머금
느껴질
포진
탐험
치료법
가락
리라고
다른가
라야
개수작
저택
따스
카스
경청
성산
집결
출루
대대로
망조
몸짓
##시계
동남아시아
체격
WTO
말끔
정차
인멸
분란
##턴트
차인
벗기
탈피
껴안
기억나
자연히
조원진
불거진
스미스
개천
견지
딴소리
봣는데
퀴들
힘차
엎드려
이나라
발표회
사라져라
연합군
158
반포
사본
구여
나위
관청
제갈
##RA
급진
##창기
필지
유부
##린내
아웅
원두
깨우
삭스
공보
##LL
출혈
하물며
간만
유화
일용
도면
##퉁이
전경련
##ㄹㅇ
쪼끔
안위
에디
레고
##즈음
빅토
직급
척도
나뉜다
구용
번복
225
ETF
Sh
광진
우릴
최경환
떠돌
봐야겠어요
안기
대내
세인트
스몰
교육자
튀어나오
##ory
두유
병합
동반성
약식
차용
고루
구동
TE
어떤가
브로커
헬멧
삼키
자본금
서해안
징역형
한통속
숙주
우왕
##날두
훔치
설레발
드셔
환해
구녕
좌측
파행
살인죄
##틀랜드
암흑
호날두
사업주
과외
날카롭
성대
생색내
탄성
국과
144
옆구리
트인
심문
선거철
신변
공해
수녀
백배
바그
##아아
평가전
바닷물
사회생활
콜롬
다닙니다
팔자
리프
##ont
깨졌
수용자
토목
알라
프랭
의협
자판
정액
탁상
접어
규율
##일기
한양대
메카
흩어져
교보
어민
휘청
쇼크
양당
에세이
얼리
##구정
엘리자
차려야
아자
남침
##바퀴
애교
로그
보일러
자켓
건축가
함수
페널
생겨났
었잖
이분법
막힌다
사비
연구실
##치마
##man
장하성
다변
씨부
엔지니어링
안중근
갯벌
##두고
전쟁터
영천
이드
극소
체전
노려보
체내
정연
중전
증강
세관
무모
할거
라이언
뱃살
아까워
갖가지
젊음
대검
석고
재검
얻어
창간
공허
냐며
잔잔
좋아할
염소
알아볼
내준
기본법
이공
##투자
들판
바친
못지
교토
뮤지션
손아
상법
성명서
수뇌
##리케
실무자
외침
한성
가솔
셔야죠
스페이스
집안일
기내
만족감
미르
독립성
어벙이
돌이켜
광저우
외로움
브래
홍영표
경이
뺏기
##베이션
하동
치닫
MOU
상세히
든데
위즈
벽면
이글
확연히
감촉
2021
판다
사파
##인물
다기
서울역
웅진
청각
정글
스톤
신분증
덜하
반출
그리워
울트라
자이언츠
분통
볶음밥
##민호
골치
제스
스모
이청
앵무새
투표용지
황태
리처드
거센
겁먹
코인
무너질
거래일
##마르
265
담담
더한
블랙박스
비굴
##스틴
둥근
옷장
경각
파출
가압
귀농
특전
메세지
살펴본
파멸
그따위
당진
##상수
##습니다
사노
층간
연행
압구정
해독
킹크
떠받
전업
SW
바우
달러화
채운
마취
잡음
사우디아
박모
설날
모로
천도
##시지가
월북
##GA
평판
상체
토하
공시지가
영산
변혁
악한
182
사재기
벌금형
경질
화내
독성
통진
젠더
750
미당
져야지
실수요자
아시아나
까요
뜨거워
1962
걷어
강철
꼭두각시
조인
냅두
모친
의인
168
두고
서대문
맞선
경직
수축
아시아나항공
독보
들어선다
김홍
자멸
##체스터
저쩌
경호원
이선
토니
113
태연
초심
롯데월드
송전
미시
하노이
성직자
작물
SD
괜한
쌀쌀
초창기
울부
성적표
다분
1967
열렬
두고두고
요직
경상북도
충실하
스텔
지구촌
단거리
당정
이관
보유국
내복
가산점
기회주의자
강판
화염
택한
##수산부
검새
총질
총출
구부
아메리칸
##바르
잭슨
허탈
넓이
습기
데려오
골목길
추출물
여수시
대갈통
강타
두터
보행자
박병호
##ㄷㄱ
싸운
##현동
려는데
비상식
양지
유배
##사전
매기
공관
함박
말년
GB
날린
상여금
맡긴
곰팡이
레이어
내비쳤
계실
끄집
우발
##조심
무드
1100
드나들
경마
배워서
위자료
두근
##은혜
레일
페북
##초리
고추장
마드
se
구애
이간
생각없이
##45
알아내
우두머리
헌정
수탁
채울
다이빙
그랜
김여정
몰아주
베베
##소니
할껄
투여
영변
부메
낱낱
쇠퇴
따질
반팔
정할
먼가
배설
생명력
지켜라
백색
부쩍
연준
아바타
한입
백날
재산세
뷔페
##렁크
등받이
하체
들어온다
방황
알콜
me
매듭
##영장
하얀색
습도
초선
세워진
당론
실종자
습성
어조
미디
##그마
CF
수양
닛산
추행
난이도
맘껏
트렁크
흐트
##닐라
사우디아라비아
부츠
나올까
조두
누비
유체
부메랑
졸개
태자
서남
루스
한다면서
엑소
이월
가결
중얼거렸
날치기
##시티
떠올렸
##age
교내
을라
모르쇠
바라볼
##문서
##나갔
##진우
미녀
보선
진행자
장동
별반
##노소
콜라겐
개교
고질
참작
배열
씨름
##머님
싸워야
거룩
블룸버그
요트
평온
버젓이
미야
일부분
무더위
돼도
제물
잡아내
몸값
흘린
동감
##ID
미꾸라지
전매
##누스
다이소
전할
역행
이한
고갈
지녔
카풀
ㅇㄴ
달려드
일식
제네시스
입성
배양
사스
외노
##ence
승강장
다케
기이
매끄럽
죄수
시안
밤중
명실
립니
유병언
바구니
단언
거래처
니즈
재기
김영란
착륙
나타낸다
쿵쾅
이라든가
특목
암기
교제
##oh
빼앗기
LPGA
면회
모유
경제학자
곽상
##보증
보냅니다
밀어내
주어진다
거느리
승낙
주점
##자락
후방
단종
외환은행
피치
리가
선방
예쁨
방산
턱없이
단국
mbc
신민
전속
386
올인원
폴리스
이노베이션
follow
뒷돈
나온다는
당위
사업단
김현미
동봉
망해야
뭉개
이효
##마을
푸하하
지만은
버드
지으
총출동
소개서
보네
그친
뛰쳐
산모
험한
해서라도
모티브
묻어나
커리
##과점
바이올린
##시원
팀원
소시
안타까움
##국장
당첨자
양손
치루
굴뚝
박준
담아
인권위
희생양
방정
어딘지
##mer
메우
장난질
비들
##BM
줄어든다
싸잡
안타까워
외양
출소
동이
##ik
참수
혼동
상종
광물
만든다고
도사
만능
플래시
간행
그리움
첼시
무법
안겼
살아라
수정안
쓴다는
가둬
##은편
금지법
##인공
원한다면
난다는
부치
그죠
유람
아울렛
노고
울림
가져갔
만한
패전
비축
놀음
ㅇㄹ
덧붙여
커져
수하
여호
전보
티나
광해
살렸
칼리
오호
비료
127
바야
부릴
골절
불이
스텝
##는지
별표
133
가솔린
김석
추기
질려
##자식
이쁠
금태
닦이
관절염
온다는
마오
##ere
침수
드라마틱
와대
오영
토사
송환
바랐
KD
포화
##혜진
led
납작
농심
입상
중남
모은다
판명
연합뉴스
김현수
방석
완주
파헤치
상설
소생
게을
기절
영예
172
sel
실지
끼친
테라스
아랑곳
열중
천정
전기료
117
체인지
심경
서거
대관
화답
##학년
도급
러쉬
맛없
면죄
역활
##폭력
멈췄
뜯어먹
##일치
아모레
개당
유로존
승승
신촌
피드백
식용
이루어져야
캐슬
드러날
애널리스트
##IN
출입국
어벤
입힌
판로
나폴레
스킬
주접
문양
할걸
##바겐
멜로디
650
구직자
초음
##플릭스
불태
##케이
이래저래
다라
논다
##베리아
Ar
저랬
블라디
우승자
귀여워서
이석기
송달
##ps
넷플릭스
꺼라
밀수
조연
가출
무소불위
노부
기다려라
중력
목욕탕
카테
##안전
신청자
남녀노소
오션
회사원
##ove
경수
수돗
그칠
구직
##내미
묶음
배부르
찍혀
귀책
신형
대미
##BA
우짜
호두
##중국
지울
고법
하부
##거품
넘어간
한약
김건모
워커
울부짖
에티
위증
박찬호
징징대
연신
외과
누군데
연필
페미니스트
놓이
성범죄자
지켜볼
##원수
kr
마흔
##쓸이
퇴치
쳐야
부러지
이오
코카
산입
구명
좁혀
렵니다
망해라
유례
자서
교육대
농락
의기
화장대
해저
지부장
조윤
저력
두르
맞은편
검은색
##무장
##15
수족
콤플렉스
아이유
갈망
금기
고귀
연달
찜질
##교도
로드맵
싹쓸이
안전사고
이제껏
선후
열등감
장타
##만장
온난
##바구니
라마
면밀히
믿기
위기감
##ost
핵폭탄
지폐
탁구
경의
패치
써야지
심도
베일
안쓰럽
연면적
선인
냅둬
흉터
성화
미지수
귀가
계엄령
당권
여실히
##마킹
메트로
경각심
펼쳐졌
##oy
진수
스러우
벤치마킹
죄악
시합
모빌
버클
폭스바겐
##크라테스
지뢰
말세
짤라
헤르
우르르
리어
빌어먹
스트레칭
낙낙
윗선
지청
말문
기류
프로그래
태조
플로리
장어
책자
가로수
176
센트럴
핀테크
토마스
분담금
여운
몸소
읍시다
입가
받치
시킵
다가온
청하
##나타
diet
전폭
##트랙
할애
판결문
나폴레옹
달할
표했
기왕
지마
음료수
캐시
윤상
꺼려
술부
몰살
벗어났
헤헤
으이구
장대
스치
163
Sp
구금
난장
##악산
제작자
오메가
끝난다
까보
끄덕이
남학생
풍미
찾아다니
치른다
당해도
폐암
로지
세팅
피했
ss
눈가
양사
급부
배트
한답시고
국제기구
##레스테
건다
받침대
학벌
포르노
누명
부검
##보라
사돈
이권
줄여서
분권
파이낸
출품
사니
깜놀
속상하
반정부
스커트
브렉
패했
팔로우
보탬
잡종
회개
연정
즈그
새로이
의례
커브
##그머니
##활약
마음가짐
사무관
거니와
작금
젠장
##레마
이천
때론
##니스탄
내성
DMZ
잠겨
##for
조합장
너스
브로드
수탈
정석
깨물
페리
사이코패스
##맞이
양양
중생
해산물
승승장구
둥글
벌인다
태반
##젤레스
##OR
테일
심재철
뒷모습
아니요
한태
사슴
김소
##반짝
스테이트
기우
허덕
광복절
거래법
변이
양동
모터쇼
배당금
조두순
162
켤레
익혀
합창단
무혐
fr
요즈음
어우러진
사명감
부시장
복부
벙어리
신재민
##김치
논점
##언스
오물
선구
국교
승패
강정호
원더
없앤
순해서
채팅
122
아로
뒈지
배타
스탈린
오크
야겠다
성우
심부름
힘겹
닭대가리
맹활약
사무국
생식
예리
권영진
난동
장가
순종
미진
야죠
##깁니다
전문직
수락
##래치
오케이
my
고국
아날
칼국수
부통령
불우
Br
지방분
##행사
원년
예술인
배상금
반짝반짝
체육회
다녀라
##덩어리
트랜스
118
빵집
느려
나이스
남방
영종
운전기사
앞세운
감세
문란
우매
노린
나불거리
모세
가지가
주정
가옥
반바지
김의
##혁명
##동아
에디션
##레스테롤
주임
어수
선례
피워
북적
급성장
선하
##쿠버
천명
작사
정상인
조르
콜레스테롤
해양수산부
가부장
풍토
까다롭
미친개
보라색
이계
부딪치
티베트
sp
공상
세션
##격자
혼수
##버둥
리틀
심기
유흥업소
갈라지
로펌
요리사
부득이
특목고
벽지
##아주
제작비
는구먼
속마음
굽히
미제
봉기
기정
배꼽
금태섭
으뜸
조사단
저금리
달랑
자막
지킴
비꼬
그려진
짝사랑
with
타이거즈
##라노
거장
불쑥
터전
진위
간소
슈퍼마켓
집무실
떼쓰
정인
목구멍
냉동실
김효
##다물
비공
돌려보내
개이
울릉도
1940
식초
묵인
몰랑
토벌
현대제철
##HD
##EA
오븐
밀레
자락
해줄
영양소
감춰
겨루
문대
답사
선입
ㅇㅅ
왕후
##ctv
적군
아슬
집약
수돗물
당명
터트리
줄기세포
116
도로공사
시뮬레이션
정태
경멸
예우
로구나
잠식
지켜본
강서구
착해서
효용
발버둥
가압류
죽여도
왔으며
으려구요
새겨진
빈틈
얽힌
던가요
한답니다
사놓
아낌
유촉
참가인
위아래
꼴값
단면
김태우
불릴
초미세
앙증
언설명
가나
세세
##백화점
동족
배반
몰표
요긴
##소송
주선
##재료
##천하
기형
복선
암컷
##중기
##프로
언능
영남대
무지하
터진다
강박
##미리
검역
##퍼트
##슬라
수군
##도록
경복
자연환경
군함
재외
모질
부상자
연장선
당겨
슬기
몸집
김도
삐뚤
손대
망고
찬란
다지만
직격
성관
##년기
내실
드레
레닌
노친
곳간
폭우
스크래치
추진력
장안
좋아한다
분간
당해야
유리창
들릴
칙칙
입장료
쇼핑백
불거지
증축
실기
##살렘
삼성증권
1966
식욕
퍼즐
우버
빈민
이회창
##루엔
무승부
남대
폭주
답글
처했
치도
강해서
특약
유역
여중
담그
떠안
##루살렘
전망대
지하수
현행법
조양
용인시
합법화
중권
바글
헐뜯
바래요
대물
건너편
##관리위원회
어이구
구상권
숙련
난관
##19
쓰러졌
어따
자명
기보
무지개
어우러져
ㅆㄹㄱ
놓쳤
딸랑
타파
엔딩
도리어
고단
##♥♥
활동가
던질
새콤
##뿌리
빛깔
쉬쉬
시들
그랑
비선
솔선
추기경
기술원
전입
획일
전라남도
쥐어
명장
흐려
광택
우여
##벌리
들어갑니다
트롯
해줘도
##젠테이션
거긴
보성
##이면
무도
현물
쿨링
선지
방망이
선거관리위원회
였음을
민관
성수기
##공업
군부대
al
##ae
슈틸
쪽발이
스코틀랜드
UAE
얽매
해부
버금
롤러
망인
##필품
야드
GT
슈틸리케
어림
초안
AM
달려갔
ex
##프스
##폭풍
공소시효
꼭지
통한다
새꺄
누른
생필품
1964
갖춰야
따내
쏘나타
##계약
챙겨라
꿰뚫
에구
수컷
부탁드립니다
##충제
견학
민영
##덱스
낙지
열일
차액
막무가
농경
##취지
한하
들였
쳐들어
##케인
막무가내
간병
더해
##슬러
132
참으
##ens
330
##러울
끝낸
문지
잠옷
서경
월평균
탐지
데이터베이스
보인다는
싸늘
##UT
신청인
청구취지
피츠
목줄
##용수
담뱃
공급자
전량
단련
연연
고뇌
군청
무서웠
조급
쌓았
생겨난
지겨워
상납
합친
성수
초유
강경화
발진
꾸민
참관
구운
최전
레전
NG
항생
개탄스럽
책무
해물
진성
어시
내사
독단
뒤섞
걸요
월화
원재료
시마
찬바람
발렌
제비
DS
간결
효도
역전승
적나라
기억력
들려오
획정
떨린다
영조
플라톤
허경영
캐리어
##ult
함성
1961
직행
관공
다이어리
아리스
반동
수성구
하우
전반기
야합
산화
조광
여적죄
진즉
혼잡
기포
가재
이병헌
안하
ㅍㅎㅎ
##경찰
통학
##곡절
랜드마크
연기력
구강
몸담
호프
냉철
쓸어버
춘추
무어
배불리
소도
철없
선체
통할
미비
IBK
원비
쪼다
나부랭이
루터
문주
치하
이요
트루
##여름
문다
독교
초록색
토트
클리닉
훔친
프랑크
##ㅋㅋㅋㅋㅋㅋㅋㅋ
##기금
동사무소
##기술
담요
감도
앞세우
의결권
죗값
방호
유방암
저당
차이나
향토
잡아당
피땀
담날
사극
##팽이
빨갛
창가
##체인
쫓아내
##에미
오뚜기
##르도
##상가
평형
냅시다
사뭇
플랫폼
몸살
예루살렘
내로
##앤젤레스
들썩
야쿠
선거전
블럭
계량
기체
로스앤젤레스
이범
날로
발랄
장구
##천리
우여곡절
다져
##nt
정신없
암만
급속도
오승환
##qu
빌린
사역
레전드
173
숱한
미스터리
흘러나오
교구
선천
그깟
##날드
수모
##ary
물의
코스트
장신
BB
쫄리
회차
##공원
어울린다
면죄부
행한
모노
1700
떠오른다
뒤처
희안
독거
반중
잔머리
##레인지
수칙
발현
무증
로이
유자
숨통
치러진
실례
어설픈
입다물
KEB
고를
외계인
배짱
살려야
126
토요
간다면
내야
어려운데
재미없
조직원
멈춘
억대
##지마
##다녔
##미디어
돌아와서
신명
웅장
제보자
미라
민병
##ne
출연료
반말
비약
퇴행
계약자
암막
셔틀
무릅
깝치
후폭풍
냐고요
돌아온다
ㅇㅈㄹ
옷차림
낱말
느닷
고령자
자갈
트윈스
##장치
술잔
모건
##쿠스
줄래
like
경작
에이전
허세
MR
조그마
환절기
##13
궁궐
계수
하류
수뇌부
제제
반죽
아실
열거
공손
더미
밥솥
취록
했잖아요
강령
노가
성북
돌파구
갈릴
겸비
쫓기
흐른
전구
카를
아찔
ㆍ군
이상황
##관리본부
사부
까만
제천
위스키
서북
위약
우즈베
백억
찌꺼
##포츠
채찍
다량
조희
첩보
리포트
머뭇
증원
##효과
라이온즈
맨체스터
자숙
연희
침구
항문
이러다
out
박보
따라다니
##뱅이
빗물
수배
영지
IBM
136
일사
##져스
나타낸
터득
김규
안식
부렸
느긋
이간질
모여들
절충
서한
##손손
##17
쳐묵
성벽
아레나
딜러
꿈틀
사업체
윤종
이근
CO
김기춘
커넥
헷갈리
스테인
공교
수교
터보
메커
부조리
저울
중남미
한일
져도
혼다
부령
의료인
고이
형편없
나약
##eal
##벼락
질병관리본부
플라자
국화
이국종
왤케
##야구
프린팅
개도국
망정
아뇨
자라나
174
막혔
꼬치
볼수록
광고주
박동
넥타이
래퍼
음악가
제니
##금융
크레인
##구이
##14
고칠
치러야
딸리
마자
상계
지중해
끼쳤
##제국
징그럽
저따위
덤벼
GE
쓰다듬
대청
파르
밑창
기막
카자
중앙선
##훼손
##부인과
망설였
눈부신
화성시
역도
그래두
방심
골짜기
산부인과
외투
##영수
여객선
판소리
203
우선시
찌꺼기
124
수치심
핑장
얽혀
비빔밥
동래
장도
과학부
찌그러
##무인
베타
김보
조주
미운
덕목
떠난다
장려금
137
139
권위주의
##둥절
독한
이뤄져
낙엽
##ber
전유
시커
존스
이연
조력
인사말
천상
속인
이동국
정청
프로이트
어리둥절
쵝오
무제한
파헤쳐
박희
동일시
cctv
사우스
이율
일품
씨티
##슬리
거처
카니
겠지
사체
단죄
엇갈리
연락처
알로
##아시아
ㅠㅠㅠㅠㅠㅠ
황후
메커니즘
NS
##혜선
서글
##루엔자
데기
망나니
비평가
할부
석상
환한
근력
올라와서
받아들인
쌍판
점주
으휴
물통
co
결별
무전
##제표
피칭
긴축
몰랐다
일축
복리
156
152
마사오
위례
탈환
SF
멘토링
##연구원
하리
악어
##푹신
내건
##자루
재무제표
누진
##민턴
요코
아날로그
두기
시군
나카
전관
다녀도
얻어먹
생리대
어벤져스
중도금
조교
슬그머니
적십자
##이라
야식
결속
인플루엔자
142
정용
깽판
지른
굴러가
악성
이력서
즐비
모을
해남
##박질
개연
상경
320
형수
극소수
빼돌리
나쁨
##저곳
##시험
요미
연수원
TP
모하
마일리
충원
태산
이곳저곳
발려
신격
전기세
노점
자카
정신줄
경리
야이
교차로
사리사
점잖
미끼
153
느껴집니다
처맞
##부족
스프레이
##렁거리
대등
단교
기준치
II
명예훼손
숭고
들끓
개명
남도
157
##던지
아이파크
돌발
더울
냠냠
욕조
무르
김광현
그리구
들여서
임창
국공립
파시즘
장례식장
유언비어
피아니스트
헌데
##누르
서신
웃돌
울진
거물
짤리
플로리다
애호
밀어붙
부도덕
캡쳐
명부
##oon
그러니깐
쯔쯔
두드러지
저버리
은평
##천동
테크놀
심이
모태
퍼진
서울특별
활개
##TI
개종
소치
소리치
웍스
이체
능숙
안하무인
AC
결핵
말린
등장인물
##ng
커진다
소이다
페루
부가세
페널티
달아났
##터스
역겨워
##방위
향유
##터카
내쫓
##ery
자긍
패러디
훤히
구타
정운
못합니다
재팬
낮췄
미덕
동종
가도
더워서
해적
법조인
온상
기다린다
푹신푹신
산전
포장지
매칭
절묘
줄거리
안착
앞당겨
167
렌터카
아프가
고흥
한건
저명
거역
컨설턴트
깔깔
닭고기
##지처
##서도
기어들
키움
##노동
##만금
원합니다
그려져
Wh
의성
초연
술자리
어면
얼핏
피로감
호출
정미
단의
빚내
##송이
##pl
해했
##토스
엊그
돌출
유목
정동영
음모론
비주
패트
작태
외주
손수건
교란
투스
사병
감염병
뽑히
달력
안성맞춤
메밀
동양인
디바
쪽지
파묻
할까봐
블록체인
no
스푼
586
무술
잔금
엄격히
윤영
뿌렸
끼니
뱅킹
발짝
풀렸
교량
하프
할게
박자
뭉친
##소스
##투수
덮어
살길
Cl
도다
쓰러진
예시
쪽팔린다
진핑
배드민턴
138
바깥쪽
슈퍼스타
자괴
무의
갑작스럽
초빙
꾸짖
정파
해짐
신병
가왕
올드
##👏👏
다졌
병동
이법
특산물
164
개웃
열연
##ind
다가와
황폐
박형
##AP
사고력
입장권
열심
캐리
##대리
경쾌
밀러
##가정
정희
횃불
곰곰
디아
투박
PM
모함
연회
선우
인내심
합쳐서
헬로
##파업
튀기
건넨
bl
악당
은커녕
##유국
애썼
가파른
현대건설
부린
커리어
미네랄
실과
와일드
박태환
사리사욕
끼칠
일렉
##택시
했을까
고공
왕래
포도주
키워야
초상화
맞춤법
중독자
성의
자긍심
십쇼
기어나
항생제
합하
아프가니스탄
앵벌이
##one
쟁취
괜춘
메타
발끝
순교
보아
개구
떠밀
수인
첫해
오락가락
손꼽히
선발투수
##리나
낱낱이
관사
에여
김영철
이글스
##모직
129
구세
사들이
##운데이션
초음파
중앙지
봉준호
사로잡혀
##라이나
총파업
네네네
웬일
힘껏
가이
항고
파운데이션
4500
보유자
파출소
뭉쳐서
선처
해발
거취
무라
복싱
##둘기
##16
스테이지
빨치산
청취자
뽑혔
부르주
틀어막
듀오
볼펜
뽑아내
허허허
제일모직
판촉
이중인
국문
또렷
번번
154
안치
##기스
열도
깜깜
어촌
##검사
멈출
내고
문화재청
골반
외할
편익
빈다
하지
만든다
조미
죽여라
실마리
##아들이
뜯어보
PS
깃털
싸질러
가자
성악
분탕
##ree
뮌헨
석면
이찬
비상사태
젓가락
라미
가히
벨벳
##리그
갑작스런
시늉
투약
주거지
희소
주원
재용
박탈감
들키
네이처
커피숍
##대표제
##ish
분말
원도
수심
토익
밀린
오지마
징벌
을껄
팔찌
파국
##리시
프라임
김범
놓친
내리막
한문
여성부
딴지
전통문화
의외로
낄낄
소급
증발
에버랜드
일터
예절
갈려고
개박
근사
자만
간간
루시
학자금
##조림
1946
어긴
##투사
호국
음음
법치주의
견본
불러야
마일리지
귀순
바빴
우즈베키스탄
궁중
질량
발전기
허전
극동
쭉쭉
대군
여요
550
대들
모의고사
AD
명세
도려
중앙당
뜬금없이
배심
획기적으로
블라우스
회의장
이직
포탈
지도층
동백
마린
알린
##픕니다
명하
인허가
오랑캐
PE
##러우
메뉴판
사기극
여지껏
앙증맞
달릴
화순
께요
외세
MD
imf
틈틈
##주군
##카스
##ics
송강
EC
대응책
상황실
부호
지망
양재
투덜
간염
플리
화백
유치원생
써볼
그런대로
열폭
진솔
땡기
IOC
브레인
##회계
ㅇㄱ
##코스
좋아했
취임식
박유
지껄여
255
플루
드래프트
연습장
내공
275
간략
##결승
시니어
적격
겁박
어서다
EP
교화
망원경
##게티
종래
완벽히
바란
키가
카운터
영농
이터
동당
폐수
엘리자베스
##ational
대전시
이케아
잠그
라오스
국부
등본
바빠서
성년
선제골
##걸레
소재지
작아
페르시아
##죽이
##ism
청계천
비서실
종부
수도원
도가
여겨졌
##게이
가다듬
알갱이
##ern
놀라움
달해
오디
항아리
정은이
##둬라
입김
필두
독수리
비례대표제
포항시
라벤
고상
김태균
저성장
어때요
149
목격자
뒤편
세간
슬립
맞아
빠진다
##런치
후생
간만에
하기야
호적
수출액
전자파
절실히
일컬
나들이
손짓
휴먼
모터스
증빙
148
참된
미백
으로선
정녕
투자가
사교
##체육
시요
한바탕
은유
유망주
난국
감량
화병
못생긴
총각
서늘
166
기록물
계장
복식
치워라
비키
빠뜨리
저작물
우라늄
지그
##착오
제철소
사슬
단도
국가원수
풀릴
회유
간당
공언
괴리
낙원
무림
자괴감
로이터
##폭신
허니
동대
유니버
영유
시식
장영
어젯
##aw
성형외과
동동
벙커
수임
여직
잡힐
시행착오
전지훈련
농수산물
청양
협찬
먹였
장정
빠져들
덤비
어젯밤
집합소
앞부분
계류
어수선
##가요
일어섰
대모
직격탄
전파자
혼내
급수
파열
옥스
##구만
새만금
차후
##수범
방류
##제리
증기
어의
감내
##근무
##AC
금년
콜롬비아
카자흐
시킨다고
휴무
절개
백혈
마십시오
마쓰
빈티지
학파
까페
상수도
스케일
아다가
파스텔
박민
보위
쐐기
석학
##of
적중
두드러기
내시경
배틀
피라미
무릅쓰
외지
에드워드
상소
##선거
강남역
교만
재검토
튀어나온
백업
타일
실드
다문화
길가
피켓
북서
##리에
폭신폭신
에듀
특별시
근린
지아
PO
북아
인피
원통
야수
일석
변함없
스릴러
위급
공생
행각
해수부
플라워
맞섰
맛난
탄식
instaf
밥값
화소
취항
노자
매혹
와이드
##건건
예정자
산책로
성문
오오
현대사
쓰임
도화
##주부
제약사
사사건건
건국대
##가와
마스
산골
심성
멧돼지
과오
보고회
미끄럽
분향
캐피탈
환전
편승
##방망이
니체
서진
개동
MP
자산관리
문무
고층
주어
돌봐
##올리
후보지
연유
구정
기발
PP
득표율
걸려도
##우트
자서전
솔선수범
신대
기울여야
요컨대
나간다는
##작물
1949
드실
내뿜
현관문
역부족
도난
쾌감
혓바닥
##분자
수혜자
으루
강탈
안간
프로필
물감
거주지
병장
신경전
BC
떨쳐
녹여
고품질
청자
딜레마
소라
소중히
격투
병원장
갑상
살폈
##ex
143
일과
가까스로
선양
보령
서강대
전멸
흡족
##ph
영덕
##미사
방자
수식어
활동비
송중기
위엄
스터디
행안
궁지
달째
시즈
운하
항명
폭언
늦춰
진격
그러면은
준표
골문
당직자
독하
순경
곡식
희석
##부동
최형
케미
##임수
나뭇가지
뺑소니
케이블카
문성
솟아
굵직
기와
봉화
엊그제
금산
관광공사
##병제
자빠져
책임져라
##하마
디오
다른데
사상자
정오
OUT
법무법인
뛰어든
퍼줄
산후
로얄
뇌졸
해봐도
변인
처박
당직
목장
##ss
추징
약혼
첨예
숨길
간통
출산율
어울려서
개보
난독
참고인
악행
지로
순대
간신배
다원
수사대
짜여
얻어맞
##쿠르
앞길
갔다온
대내외
핏줄
발각
로프
힘듭니다
##ime
이발
궁합
146
자장
일기장
초원
기라
열대
콘퍼런스
실직
촉각
황정
금상
134
소총
영국인
##어치
통찰력
된다며
##──
병상
주총
통용
담당관
목적물
일궈
콤비
##orn
머슴
남경필
녹조
##워야
내려갈
들렀
코리안
관공서
ㅇㅋ
승화
한국사
할려는
으셔서
추울
에용
순리
##스피
배관
불분
김시
잘생긴
나올지
instafood
##차기
끼친다
생강
단체전
모국
##다운
똥칠
규약
쑥대
정우성
통틀어
스타킹
앙상
양천
버려진
주물
##바위
살상
##악단
케네
펀치
연민
한기총
늘려야
모성
KDB
봄날
미움
노이즈
후쿠오카
러시
##거려
##과이
##고집
커머스
포고
콜로
소용돌이
##태평
볼려
귀결
암세포
성리학
정신없이
중개사
최대치
비염
제트
물씬
어워드
MBA
##탱크
##언정
할머님
차가
한경
댕댕이
아멘
동독
##밸리
##치아
##호영
구스
만하
##대사
으려나
링컨
공습
##불호
GP
아메리카노
##덕션
강소
허다
양현종
부산항
후원자
지지부진
경인선
비주류
따님
받아들여야
기틀
추워서
출입구
##호흡
들락
소크라테스
어서요
삽시다
여혐
끈끈
군더
체벌
해인
포대
실익
##특기
피해야
ㅜㅠ
일지라도
LPG
호주머니
박인비
베이커
다산
시베리아
없앨
알려야
고의로
수천억
부림
호불호
킬러
이따금
전립
##무시
참혹
블링
##번스
극성
파파
나왓
다림
돈독
도도
권오
무기고
칸트
단조
걸으면
결점
손등
방사성
여길
산적
능선
동월
국회법
ELS
##거진
됐으니
노역
##산동
주특기
당께
오월
##불이
돌진
갈증
탄원
불분명
윤석민
길목
한철
설계사
##화학
##대원
실렸
##어링
논증
알고
##식물
출연진
안간힘
청화
나돌
만년
동맥
완제품
본품
중용
피카
공적
구미시
##강도
저변
서지
감형
##의지
정모
구약
드름
전과자
갑갑
##이식
동강
딸내미
비둘기
유은혜
내림
카르텔
초중
군더더기
위크
반열
남극
경전철
전해진다
장년층
흔들렸
맥도날드
면하
생존자
휴가철
불나
##지엄
주지사
레임
똥구멍
재협
만루
여행가
성장기
예뻤
##꼭지
카테고리
성태
심포지엄
기자재
자구요
##ome
여종
한다니까
국인
양궁
계획안
##행정
예비군
토스
통폐
차차
##차별
서두
레임덕
서요
폐막
내무
액면
오르내리
그쳐
영업자
경복궁
유적지
##orld
청동
재품
자가용
재결
세차
무이자
오보
탄수
##ok
제각각
황토
##어낸
거침없이
수세
탤런트
미역국
살균제
유니크
케익
포스코건설
한걸
지점장
다더라
출입문
퉤퉤
미동
저널리즘
소견
양분
##가동
장세
따끔
교통안전
구질
##정지
영진
PGA
구더기
희열
청라
파편
십상
경상남도
물러난
부적합
선거인
파이낸셜
패망
문과
비어
생후
소풍
신아
나트
개인주의
가했
밝혀질
빳빳
놀려
바겐
사이언스
DC
##꾸미
선언문
초석
배신감
청년층
주광
나자
흑흑
##해전
아까워서
발하
마운
커밍
이우
자본가
맴돌
배고파
케이티
147
어찌하
화물차
그땐
널려
시황
버금가
꾸몄
대낮
총격
다가갔
준결승
나무라
성황
##아내리
타지
진료비
독해
이랜드
꼬이
넘친다
##sh
게르
네모
용산구
보디
아인슈타인
간경
우리은행
곁들여
서독
튀겨
1910
Al
음흉
##사키
조형물
인단
##ick
최태원
한가요
쇼트트랙
강단
질수록
객석
일파
명실상부
서태
외로운
넘어오
우크라
적재
대머리
베토
##게이션
하급
차주
천체
##ES
내려다
열세
##ah
노렸
##속기
##⠀⠀⠀⠀⠀⠀⠀⠀
완승
경화
조건부
내비게이션
접점
랜덤
부름
윗부분
사옵니다
##설수
아반
분출
디렉
##나절
냐구요
빈약
식수
흥청
동유럽
핍박
다문화가정
향해서
사적
##씌우
겠다는
##망상
느니라
케네디
뎅이
풀린
##진창
장내
명언
지양
나이다
어시스트
##징계
조직력
군자
바쳤
귀띔
근까
등용
한게
개떡
##클린
스톡
엉망진창
##te
갈대
MM
아수
소이
기념품
시크릿
##돋움
노가다
망해도
사기업
발돋움
##두천
한수
윤성
위약금
여분
표류
원자로
원할
가가
현충일
다냐
힘주
밀렸
친선
통폐합
순응
장재
이태리
인친
진급
불감
은수
##ction
절기
경륜
폐허
선후배
##푸스
걸이
단번에
전도사
안무
워크아웃
떨어짐
모진
히말
스포츠동아
다쳐
독과점
##ㅡㅡ
매화
눈알
반대파
통념
남아프리카
자성
시끄러운
타개
시달렸
편중
한다더니
##펙트
노사정
선주
##ivers
낸다는
발뺌
해놨
변한다
격하
세정력
애원
도안
개점
캐피
동갑
##ake
찾아간
##해하
축물
통관
씻기
##스러운
바라기
알약
##OA
고쳐야
예쁠
기자단
##제당
헤엄
낭독
버핏
1953
송치
제하
깽깽
겸허
아구
##창호
빼앗긴
샤이
왕세
레미
재조사
착안
의석수
허리케인
멜론
테슬라
해태
배고프
눈뜨
원리금
바랬
홍명
존나게
일말
##ons
미신
선적
퍼다
##거스
신세계백화점
낮춘
드니
말썽
여태껏
수력
거머쥐
케인
전문대
##바라기
직계
삼성동
자아내
불기
슬라
소년법
밀폐
경치
연두
경계선
영성
##ts
숙원
완충
샤넬
시드니
고취
육갑
제일제당
퇴보
자요
현충원
역력
관리인
##부수
느림
기묘
몸뚱
잠금
끝낼
##것도
##호식
경미
으니라고
지팡이
오른발
##ug
돈다
NY
자며
##절절
토트넘
지닌다
참회
연주회
##바글
거인
##리스타
히말라야
월등히
이긴다
구구절절
건져
베토벤
빙상
하이트
뒤바
실외
현대그룹
무시무시
루프
김종민
중재자
옥순
##브이
즉흥
선율
헌혈
스트리트
연평해전
여하튼
##에미리트
보병
참견
정상급
갈려
안테
카더라
아랍에미리트
적이
초토화
런지
잘려
떨어진다는
오우
##오른
놓였
막아내
##위성
어설프
걸어야
떠도
문화원
BS
감액
생동
함축
구토
바글바글
부셔
##런지
대리석
꽃잎
피임
마카오
##미르
버스터
아리스토
동자
반고
##pr
문책
비나
선입견
알로에
진실로
안토
과속
영생
##예금
종영
순둥이
여쭤
출사
탄수화물
별일
한다는데
두드려
뽑힌
견과
사익
러스
국립대
##로이
이청용
낸다고
가르칠
##적거리
빌보드
익산
멋져요
일절
따윈
신중히
권했
전인
스튜어
살림살이
ㆍ미
##으리
다녀서
극명
합병증
하버드대
분홍색
마스카
황우
가네
겨자
나시
그럴듯
라나
레이어드
재협상
원해서
ㅇㅁ
스트라이크
브라우
채식
글라스
특단
드러낸다
개차
태클
아야죠
끌어올렸
수역
피시
역사관
415
조준
담아내
싹싹
하이라이트
동두천
몽고
심할
편도
탄다
값어치
ID
박한
꽃길
가져다주
멍하니
무궁화
구내
SDI
진가
품안
토의
빼돌린
부랴
패닉
##질서
마피아
세연
##수무
뒹굴
성가
텅텅
##꺼풀
준우
화기
어니
허덕이
세워서
재끼
부서지
쫓겨나
기웃거리
도교
융통
고착
홍석
##등기
초가
생태계
접경
본전
마중
느닷없이
때우
산문
속히
##취업
안양시
자그마
숙였
개고기
몸싸움
게나
청송
구본
으이그
유추
과업
교시
불린
허영
역삼
##로워
챙겨야
썼었
간디
고하
돌이킬
그제서야
까마귀
필승
단자
뇌졸중
660
공탁
주치
순전히
침뱉
##래요
##휴가
##OD
왼발
##곡히
붙잡혔
격추
출격
하아
올려놓
통운
완만
버그
다퉈
철원
기약
이남
대니
수괴
안대
한샘
명쾌
미끌
균등
자임
문수
시원찮
쑤셔
용적
학교장
that
반군
좌천
##정리
남서
김상조
퍼스
진나라
추해
보송
##아슬
##환자
신동빈
변증
##지방
삼성생명
요양원
안산시
내과
노련
일국
너덜
##ㄷㅅ
##료품
될수록
만류
이혜
발찌
컬링
시간대
넘어설
다길래
거렸
문젠
해왔
아슬아슬
친지
울분
인감
맞닿
춘향
전항
가족사
캐피털
##레기
기냥
Gr
급제
김수현
어법
쿠리
쳐내
애국가
##청사
싱어
프레젠테이션
##종양
입법부
죽임
##세데스
이토
1919
김해시
그리스도교
##레이트
인피니
메르세데스
소시지
낙제
김순
계양
애새끼
길들여
유심히
여겨진다
##는데도
울화
호의호식
스팸
Sc
뿐이
등쳐
비침
쿠르
보세
##레스트
경영인
그럴수록
괴로움
아득
역병
##AN
이타
무임
전집
##yp
마스카라
테크놀로지
여단
추앙
활주
##떨어지
강등
기무사
노모
해바라기
안다는
##eb
허점
섹션
갇힌
멀티미디어
육신
군정
off
인신공격
일깨워
취해야
카탈
농작물
전임자
통쾌
천연가스
가려움
갱이
저수지
페트
수줍
##슬링
테러리스트
식빵
으면은
약해요
시효
장지
##광이
가소
골격
으흠
스케치
가창
일인
평점
버지
개비
##오줌
상추
##간첩
현정
나랏일
필립스
범퍼
늘린
처리장
렌트
어버이날
오거
뒷부분
선크림
##날리
실까
만장일치
좋아요
쪽팔려서
진척
치뤄
실리콘밸리
공석
사색
찰나
평화상
정호
회부
투데이
부풀리
사교육비
정예
스파크
고척
##ef
이래라
강의실
##케미
덮개
문창
주휴
뱃지
빠를
과부
지근
##블러
노니
본명
모차
슈퍼맨
되돌아보
리튬
애리
연립
##iss
무가
개년
이봐
안전망
아늑
발원지
언주
팔뚝
난도
매운맛
잠복기
봉인
##반찬
다나
독식
사서
능률
사발
마그네
쥬얼
##마침
상어
훈계
##구장창
재연
카자흐스탄
금성
##리히
주구장창
황홀
직감
이방인
백조
분개
축구장
대치동
어쩌다가
곡성
스니
아이큐
유소년
촌스럽
한명
사상가
ad
싸인
돌아다녔
##ace
집사람
지나갈
부설
합참
게을리
예스
쉬워서
쉽사리
값싼
김부겸
송혜
나아졌
천성
중소기업청
부여받
성토
여편
이춘
반등
서예
아집
켈리
진천
169
사회주의자
다면서요
순국
변함없이
작별
장단점
장중
이겨야
횟집
##말랑
망설임
뇌종양
한국노총
순순
걸어갔
##매장
길들이
발포
콩쿠르
사정관
초소
강풍
박살나
내세울
만전
때마침
신상품
여편네
까대
내려졌
경료
유람선
고파
선동이
##튀기
희박
주택가
라운지
중임
소비량
해집니다
페이퍼
절호
##치우
##부대
대작
밋밋
학장
돌려보
꿋꿋
##회전
졌으며
ar
일용직
애꿎
섬뜩
정치학
살아오
##기념
포식
상담원
일면
따갑
구가
##사진
##일관
낮출
##💙💙💙💙
스카우트
말랑말랑
##재해
피라미드
##정보
바오
소령
겨드
겨누
##io
##바바
You
우겨
1958
경시
뽐냈
위키
여주인공
뻥튀기
세모
대림산업
정승
주황
무증상
불면
욱일기
덜덜
관전
좁히
##다닥
원문
CM
재상
##춧가루
무턱
저탄
여고생
세계사
##마나
보탰
찍혔
NGO
도살
내미
스냅
지주사
쯧쯧쯧
소비재
꼬락
2025
돌아선
강지
빽빽
##ord
골밑
후련
애틋
찾아냈
여대생
BTS
솔솔
스트로
##더니즘
퍼레이드
원성
용수
월급쟁이
체크카드
거려서
독소
쏘아
파트너십
cat
샀었
소자
나들
갖출
뜯어내
NLL
일색
굴곡
##하우스
##블로
왔다
하층
후작
풍습
사대주의
미셸
처묵
머스크
##사관
한일전
가할
존립
지역주의
들어맞
잖니
주광덕
##심장
화난다
##ous
흐느
##tern
##플러
해져요
특공
학술지
##텔레스
리자
본당
만사
유토
풀어놓
##못해
레코드
##마차
스펀
보증서
실생활
피보험
돌아다녀
##르륵
가운
연골
황소
통치자
아보
##덕지
##예산
로직
철근
사대부
##실록
전조
외양간
클리어
로보
CIA
정병
날아갔
화전
송혜교
소심
움직인다
##현정
꿀꺽
상전
시판
##정책
고야
냉소
똥오줌
와이번스
##지물
휩싸였
깔린
개진
##ock
날아오
특례법
두통
해군기지
시네마
교섭단체
목돈
까치
##길이
캄캄
모는
석가
서울특별시
명료
때릴
요요
무비
학군
창녕
화신
##BI
여객기
좁쌀
아기자기
어유
1956
대대손손
내분
가신
개콘
접견
아리스토텔레스
##ON
칭호
아니할
북한산
신사업
##폐물
https
종용
화약
박승
##케미칼
##쿠라
외무성
렌탈
발단
탄광
가르친
행거
놔도
결탁
미나
서약
부르주아
포석
국방비
안부
주군
SOC
문전
따돌리
##일비
공문서
빅토리아
주의보
수기
컨퍼런스
##남동
율법
강서
에로
##께끼
프랑스어
##주머니
로웠
역류
##케어
치이
##부치
널렸
##어여
역경
수수께끼
##82
항체
체불
통기
육류
찹쌀
풍수
##몰이
무자비
380
더러워서
공소사실
개회
내민
##하키
##사르
왔으나
##조각
구지
##수단
##대장
으셔
누님
지미
두각
##태현
터무니없
김양
직거래
가까웠
전학
비쳐
퍼팅
경부고속도로
개짓
##투맨
지만원
아무거
펼쳐질
기로
법사
기공
안전성
트로트
노노
영암
##길동
최승
##눈썹
다뤘
정청래
치웠
발해
##장수
출가
모나
보호구역
망해서
맞먹
발화
##기능
값진
키는
그래서인지
주창
친서
위정
추접
쪄서
스테이
활보
BN
가장자리
FM
자연재해
생신
번번이
구린내
로빈
##부랴
임정
들으니
뒤돌아
영등포구
여름휴가
잠든
빈자리
유창
##며시
공사장
다승
속임수
##VD
볼링
IPTV
기탁
##태용
##래프트
다이노스
빨려
누출
철제
합심
흠뻑
고점
롯데호텔
알렉산드
이롭
리티
난폭
PK
소유주
전립선
꼭꼭
LIG
##상식
화풀이
뚫리
##마개
태운
KAIST
갈치
끼얹
바흐
##ife
연약
나들목
내려간
빙자
시방
맨투맨
찌개
능지처
묵살
리츠
씨부려
처치
한족
##낍니다
워라
예결
남궁
비친
우주선
불감증
애잔
기름기
내딛
내놔라
억류
쳐드
영탁
에이전트
혹여
##수거
꿀맛
##앙스
유골
인적
인수위
가로등
뛰어다니
고깃
##은희
청사진
록스
##전쟁
##처리
미식
사문서
악물
평년
다님
원어
나아질
부랴부랴
##카이
그리스도인
움츠
예사
이씨
정종
신항
타로
남인
슈트
엄연
다섯째
거만
한적
##다드
지날수록
고군
작위
아반떼
논설
모차르트
일손
송정
##지역
연꽃
이중성
Press
가디언
논할
길바닥
무난히
##밴드
땡큐
조양호
변동성
나니
수행자
펀딩
##들리
험난
닫히
만진
정열
사조
난항
마칠
스케이트
북동
야망
아몬드
제멋대로
스키장
글귀
남원
물색
족보
대표작
내통
느껴져요
납세자
씻겨
입출
포커스
아쉬울
득세
현주소
부화
레바
부쳐
말렸
일본식
영공
##이상
메이지
방귀
긴데
무리수
급부상
상속인
녹취
새겨져
넘나들
봄철
으르
속눈썹
이름값
왕족
퓨전
올려다보
놀라울
똥통
121
ㅌㅌ
난처
유명세
비운
군기
능지처참
장바구니
혜원
평행
넼ㅋㅋ
뉘앙스
콩고
요미우리
음직
수협
커트
끌어당
⠀⠀⠀
##검찰청
비엔날레
산길
감소세
이재정
으리라고
퓨저
수학여행
조진
미치광이
통행료
무스
진자
취사
떠올라
평평
낭패
행군
야경
##뽀송
보험업
홀리
속일
보잉
캐논
조계종
##필드
카네
태권도
너도
1959
작업장
노통
격상
방지법
##지부지
떨치
포섭
흐지부지
시럽
플레이스
##지먼트
##♡♡
산업체
이변
생업
황급
Tr
하등
준비물
조목
라네요
느낍니다
동법
물놀이
290
막스
김옥
멜라
뒤따라
대차
강가
동승
원론
매니지먼트
병기
그람
솟구
외교통
다가온다
징조
1947
찌질이
아이스하키
황해
스트리
닭갈비
다용
Sch
시다
김덕
자상
로군
👍👍👍
모셨
잡혀가
밴쿠버
웃도
후일
##매기
만도
과소
덜떨어진
박석
ㅜㅜㅜ
인계
##봉주
티슈
##ank
운전석
폴라
함락
대검찰청
##버릴
들여놓
##통제
한림
마왕
##😂😂
최강욱
##송뽀송
노폐물
부조
자다
창시
교통망
잃어버렸
수도권
뽀송뽀송
회기
공매
본심
이성윤
근무자
무정부
음력
그랑프리
열병
금새
숙종
플레
##지리아
나이지리아
배부른
잡초
##지심
무의미
제안서
TH
정몽준
1954
구혜선
개차반
##CI
밀착력
브랜
독제
몹쓸
##나도
가상현실
티저
주니
##her
객사
클레임
##TC
외자
괴로워
두터운
완결
순순히
버럭
정영
목표치
곤혹
##노릇
##레일리아
고약
봉하
평민
궁민
부관
원초
패소자
대패
연료전지
몰아치
틀려
포옹
단발
인승
초교
펼쳐져
##99
비상시
동시대
확고히
MW
##ina
매점
발맞
날인
참기름
겠죠
도수
하곤
즐거웠
팩스
태화
묘하
식상
영호
영정
답안
트라이
다가서
ABC
양준
메르켈
활주로
지발
양가
계모
떨어져요
논산
제끼
주진우
은닉
##22
시초
요일
놨어요
강우
물동
숨긴
##의정
구한말
AFC
재취업
##보레
어려워서
라벤더
거뜬
꼬시
리안
대추
혼선
기대치
##테리아
위암
도의
##불명
소화기
표지판
알렉산더
허망
명작
아픕니다
어그
임대인
스위트
##per
##ology
self
장흥
민요
브라이언
안상수
펴지
성신
사과문
고혈
국민당
쌀값
질소
슬퍼하
##니더
공복
반년
제너
분리수거
대파
##브스
영월
신기록
게릴라
경심
사활
기간제
관세청
홍진
카페인
스펀지
Korea
외친
될까봐
잡티
졸업식
ed
나머진
다진
개각
놓칠
올께요
1955
넷마
온화
퇴계
쪽팔려
순공
우방국
##ide
애서
누웠
엘라
충견
헤아리
까맣
강원랜드
글리
항거
비자금
고온
트림
레즈
피폭
신용장
맹자
윌슨
서훈
승선
주세요
뜨거웠
NE
절규
분기점
어루
Bl
KL
흔쾌
레이싱
서식지
백서
팬클럽
3040
자카르타
나고
섣불리
각료
동태
애당초
혜성
다를까
골드만
넷마블
##old
아폴
연기금
##군데
잘리
청담동
옹기
앞장섰
둘러싸여
까발려
작단
못한다고
봉합
더럽히
최형우
어뢰
제수
봉제
모면
시애
문화예술
주어졌
헛발
김구라
독립투사
세치
노마
폴크스
문맥
웨이브
시찰
변종
봤었
최저치
몰상식
##태평양
고을
##쨋든
모라
경건
인견
허우
편집자
접어든
패한
꺼낸
알몸
푸르지오
객체
가발
나뭇잎
상충
왜국
설렘
칠곡
리버풀
시구
고노
공민
일구
##ach
갑상선
반대쪽
을려면
시모
부풀려
절하
카스트
클라이
##포동
선로
무주택자
울주군
장충
##공항공사
안테나
코코넛
데카
홈즈
기독교인
쩔쩔
KS
냉방
뭉클
센티미터
소분
야후
공정성
처한다
그랜저
JY
교전
더디
친족
담양
남다르
발라드
답장
독일어
포교
장학생
석권
홀대
독신
로렌
틈틈이
학설
뒤흔들
오카
히로시마
움켜쥐
##쓴이
신시
##생각
석기
글쓴이
##거름
예식
역차별
아닐지
기네스
##ade
##ox
도식
아리아
##코니
키엘
불변
앞치마
내보냈
개의
출근길
대소
낙서
내려와서
쌀국수
항산
어쨋든
도성
놀아
체구
##축구연맹
가파르
매료
달팽이
##슬쩍
으리라는
나쁠
박현
CT
빙수
시금
##네이
무용지물
도스
상투
백미
허약
##오드
아파하
걸쳐서
변색
비무장
자몽
죽인다
##라이어
ML
자태
남대문
박선
테르
깨져도
기어나오
##킨스
##내렸
정기예금
마야
알려준다
폭설
토너먼트
예치
비석
##25
베이직
스테이션
마카롱
갔다왔
동천
숙지
시발점
래미안
시차
포탄
제후
격파
뼛속
고물
장작
##분투
벌거
꺼도
최면
그자
설훈
포상금
불발
프롤
휴양지
갱년기
엉성
##의회
잔다
개기
별것
다칠
슬라이더
천둥
희곡
광진구
##팔트
예언자
교향곡
전병
바닐라
대학가
무의식
교육장
말자
따라갈
강습
벌크
마이너
##렐라
수개월
프라이어
스파이더
피어
회자
쫓아가
헤겔
##당당
##디다
송장
초계
허리띠
기념사업
아스팔트
언젠간
오스트레일리아
순매도
테일러
##act
산란
솜방망이
##위대
진다면
알리바바
베스
구차
힘겨운
멤버십
선일
소비세
방청
소작
자지
취해서
미관
분쇄
편차
##사기
정신력
소세지
##😡😡
동떨어진
학기제
달성군
로망
불거졌
나날이
##ink
진원지
해이
장윤
헤딩
분향소
##중국해
임시회
구국
고산
##감정
저탄소
앤디
국방력
양현석
그려지
재수사
극악
노파
아서요
선대위
상류층
신통
연구비
수서
본분
##봉사
그럴싸
레이디
등쳐먹
천진
시승
애완견
모아야
운전대
땡겨
호통
기념행사
작업복
가져갈
김태호
초인
주립
판서
이성계
주안
정민
바라본
올까
찜찜
구심
##톡스
EX
해상도
안구
방법론
정력
해장
청구서
충신
##부지
러블리
식료품
##67
배역
캡틴
삼계
관영
쉬울
욕했
##지휘
gr
수렁
##pt
UE
모스
노을
루비
엄숙
온기
약소
유민
부드러움
측량
광학
날라가
게이츠
무침
기뻤
끌리
아이오
##ner
아들딸
미즈
프로야구
##에나
정치색
블랙홀
척척
##난방
##able
울컥
퍼프
차입금
어당
촬영장
##카와
제네바
역사학
##대고
작업실
케빈
전등
액티브
어울림
##문화재
소문난
오프닝
첨가물
전환점
알고리즘
서포터
정벌
음란물
Mar
생각났
pl
보루
전생
경차
끈기
이용수
정거
블로거
지탄
접히
따라붙
새빨
시험장
큰소리치
##스피어
지배력
당함
달려오
빈곤층
##토토
투병
가야지
변방
##희경
일몰
##익스피어
권혁
##마루
흐를
키친
까이
시외
테이크
끈질기
변절
매실
셰익스피어
황급히
추태
##일체
##ead
어때서
밀림
필로
귀여움
미쳐서
미륵
출항
야무지
펴낸
나았
문고
인천항
높여야
바칠
거쳐서
보듬
##애나
툭툭
흉악범
결부
사생
돌변
볼보
박대
방증
통이
활자
여리
플란트
부글
움직인
천민
도통
권세
낙타
복당
도봉
이형
괴롭힘
분발
난간
##막염
경주시
반세기
으란
완도
한영
파주시
블러
##eat
##문고
사납
디질
부지사
##로로
조림
비린내
건재
방언
난데
캐치
헤어진
관저
똥고집
애프
맞춰야
체증
리얼리즘
기선
앨리스
속죄
좌완
박유천
가만있
무수히
답한
고압
신예
홍문
지선
행여
광고비
달려왔
의과
애리조
이상민
팝콘
##좌왕
민초
수로
가려서
우왕좌왕
싸워서
제방
대감
부양책
임수
니혼
손보
크라이
내국인
생활고
부식
전권
성씨
바이크
징징거리
Ex
점쳐
##살개
불합
유닛
백혈병
총량
머리통
부업
돌고래
생계비
신물
##시안
어드
김호중
더없이
셀피
물어볼
무작위
몰려오
군비
성행
##푸드
천안시
밧줄
달구
개항
##딱지
경진
요르
cc
ㅇㄷ
테타
강동구
절절
전라북도
방문자
멱살
패기
##조치
젛아요
##감사
##동욱
not
고삐
벼르
뭘까요
코노
축전
편안히
벌렸
여보세요
성난
사르
가리켜
짊어지
갈취
우승컵
##버스터
비데
##누리
지크
분경
무기력
이세돌
카니발
구시대
##습관
참모총장
##65
잠기
##이스터
중징계
뚝뚝
상대편
동해안
##👍🏻
죄목
유사시
일병
게임즈
갖춰져
실망감
강호동
##23
거동
##달리
는지라
으십니다
##골목
AF
초저
##ire
ㆍ일
몇일
행실
##승차
##파이어
먹칠
##CO
어허
굳히
##아르
지긋지긋하
성패
주중
##철호
매립지
명인
전셋
자산가
대웅
신보
##EN
##교사
얌전
뉘우치
금치
역습
핸드백
미연
기록관
현빈
커스
훑어
##루지
내려올
꿀잠
블루베리
견적
전서
근친
박연
어정
##비슷
Pl
고춧가루
인회
찢어진
나트륨
##태영
자크
at
브런치
창백
팔릴
안이
찬탈
열전
면면
망쳤
도맡
라니요
부딪혀
삽살개
공양
영상물
기명
불태우
선구자
트렌디
교외
선취
못살
승복
윤지
##질렀
한다거나
간파
연석
##기부
음색
조로
림종
##대리인
까칠
속편
부릅
##볶음
착착
했는데도
블로킹
풀어내
기본급
뚫려
##우회
순천시
소국
Univers
질식
살걸
주변인
그림책
얼만데
왔으니
찰리
약초
당김
만취
오차
수변
광채
연설문
찌푸리
이왕이면
##son
북돋
엽기
무급
서유럽
난장판
박제
격화
뒤엎
통감
흔쾌히
##을지도
때려라
다독
중금속
이홍
##친절
망령
축산물
게시물
마구잡이
큰데
살만
꺾이
조현아
소린지
1957
##거든
났었
컵라면
데님
부천시
오정
노약
합해
식습관
cl
희망자
기치
경솔
사골
##사회
급상
칵테일
병든
브리지
유키
아낌없이
설명깊
시름
WS
막힐
카프
널널
수의
권한다
하다
무서움
구독자
스핀
행인
코스트코
##두렁
관동
지휘봉
염기
##베르트
이주민
찔끔
슴다
흔치
시민운동
병풍
손씨
은총
인구수
2400
데려와
줄여라
땅바닥
오동
금정
올지
##테이
보온성
들뜨
괘씸
무턱대고
정령
부유층
쇄도
급선
새싹
진부
외벽
직선제
임팩트
판매점
흡착
영업시간
와해
식도
왓슨
소탕
##모스
사우나
먼데
네임
대생
고속철
유토피아
잡혀서
아영
소질
##오피스
프로세서
저래도
기행
희극
모사
감출
홍길동
Ph
워즈
신호탄
진보신
대당
204
풍광
##만두
고군분투
수현
##미사일
##정신
국자
로열티
휘둘러
해악
##카이도
##좌파
밀려나
배합
열강
갑옷
느려서
순결
##ite
주소지
가엾
정명
어루만
늘려서
섞이
수경
팔짱
뒤꿈치
되물
재력
국제선
시애틀
장문
대행사
으련
수문
영아
지은
포구
김성수
부단
휘두
더해져
돋보인다
남해안
오미
빠져나갔
광해군
구덩이
평택시
##이조
식생활
차곡
하녀
가와
다스려야
내려진
go
##래기
천자
단층
##누이
##요금
괴롭혔
인부
한화그룹
##ign
얄팍
특권층
인덱스
휴전선
노브라
폭침
등록증
정거장
##레븐
##코프
본원
일동
언젠데
서현
과학고
기록부
저물
중심부
다룬다
가오
xs
420
후후
비밀리
허정
프렌치
플래그
요걸
문학사
베이컨
여긴다
폄훼
해동
오성
패럴
조식
일임
접해
암것도
준우승
패자
매수인
스킨케어
콘스탄
CI
텀블러
권리금
일그
정박
회의록
질기
내부자
1952
익힌
초당
끌어들여
이기심
승부수
그니깐
물정
김두관
받아쓰
##레타
묘역
기정사실
되돌아가
뽑아
악덕
강효
##웨이트
공여
##더슨
번호판
유고
인준
커넥션
티스
갔다오
340
발레단
반소
긴박
흐른다
만천하
주디
고원
알록
이과
불식
자인
수트
살아날
아수라
판세
알찬
ㅇㅇㅇ
춘천시
조부
보나
레버
블록버스터
UEFA
김성근
밝혀져
중얼거리
하늘색
예탁
##마당
VS
티아
스콧
밤하늘
##커피
아동학
이겨낼
미키
최현
전문지
매스컴
뼈저리
목선
줄리
Con
서랍장
리얼리티
렉스
##텐도
거행
조마
ha
마담
잖어
세이프
바기
너비
유태인
편식
졸리
##진진
이종걸
쿠웨이트
제청
##학력
의뢰인
다른지
##영향평가
해충
일장
오리엔
기다림
닌텐도
순직
펌핑
심리학자
ㆍ고
담가
분탕질
의중
2200
##75
그기
마져
졸속
국빈
얼빠진
다분히
끼쳐
닥친
나타낼
흘러나왔
으음
##르노
낱개
석류
배현진
암묵
애시
쏠쏠
지구대
##88
##상정
악착
임태
환경영향평가
연해
버텼
##선언
물방울
##클리
무광
심폐
네이트
불친절
패션쇼
어떻하
도토리
론가
축출
산청
토이
자청
테레
면허증
헤아릴
삼류
York
ㆍ도
버틴
퍼펙트
광업
변증법
출두
물으면
크롬
여생
물든
연마
가덕
토머스
영영
포맷
##잣집
경도
돋보였
고강
밑거름
가차
말다
고정간첩
케냐
삼각대
무심코
정약
네거
쫒아
##룽지
한라산
##ition
떨림
피웠
피보험자
이광수
음양
떠들썩
별첨
도용
치는
재조
mg
광안
한국군
석유공사
우익수
욕보이
반민
장판
삐딱
들러리
키워서
고창
종주
##33
리베이트
수화기
출토
살펴봤
지마는
관망
방중
행자
쿠쿠
노동계
하정
##조작
최하위
여념
##능력
김재규
막가
망가뜨리
실추
팽배
신다는
얍삽
쑤시
접이식
##갈기
부귀
교통비
순탄
한정판
피신
노랫
##통화기
무임승차
##통화기금
설명밖에
라파
후반부
전광판
신고자
##선미
##독부
차서
각급
공격력
소다
설립자
카디
항공모
맥아
은사
고사하고
승기
박스오피스
는다며
흥미진진
##바른
김정남
ph
심근
추스
청순
##데리
##na
##세웠
강수량
한명숙
문제삼
인색
힌두
너도나도
엄하
소공
전자레인지
계룡
##체류
국제통화기금
기념비
##에이터
##십리
투하
부축
가한
아삭
흉노
도축
휘둘렀
최전방
업보
이해력
다윈
##드기
리프트
문치
시부모
스파게티
타오르
##net
##자치부
방정식
촉매
중개업
일거리
초이스
탐정
선수촌
무참
박명수
tr
장화
돈줄
##딩크
##구질
##게이트
왕권
행정자치부
웃돈
소모품
깜박
일석이조
아픈데
암담
통신비
밀라노
##기계
백일
대장암
정치권력
결연
문안
방방
실거
전법
und
안가
보신
##두루
신경질
졸음
무서워하
신태용
불법체류
수리비
결백
매니아
##그림
정근
미술품
특정인
장현
고배
조심히
립식
전현
aid
우먼
칸막이
도전장
인먼
히딩크
군데군데
알렉스
화단
맞불
인공위성
위시
본건
##이동
도망갈
맹렬
##갔다
맹신
##24
물동량
얼렁
코딩
시피
##오피아
피츠버그
물거품
##가슴
갖은
가망
엇다
꼬락서니
갈아엎
빼어난
##에어
신현
네거티브
한선
찾아낸
였었
프렌즈
직진
일으킨다
괴로운
메스
비문
##광석
Pol
물걸레
캔버스
에티오피아
김명수
외야수
##AA
근현
소송대리인
해프
더리
차우
수난
총대
신조어
##out
포티
삼성카드
센텀
흐릿
뽀뽀
기하학
기말
얼릉
선회
찌든
추도
##티노
##달록
조또
대학원생
누수
알람
전단지
기린
오니
구급차
멸시
정확도
영화배우
불응
충청남도
알록달록
엔젤
박은
KBL
##ave
##포드
건달
자랄
래쉬
OST
가림
체어
##대포
빤히
##자치단체
장마철
흔들릴
조달청
등기부
걸작
지배자
소실
등락
연출가
##순간
중견수
are
입소
둘러싸인
스완
모신
##려구
##파니
원효
황재
아프간
제품군
계략
킨텍스
##거린다
모교
##조목
창건
온수
버지니아
성완
면밀
##ver
옆방
아미노
뒤틀
월성
단수
Man
내게는
물꼬
인품
두드러진
치사율
민의
##35
역내
서도
중거리
new
안병
집게
허둥
시화
천식
호스트
앞면
산동
쪽쪽
##ations
호반
오재
처남
두루두루
하기사
역효과
지영
##iew
권태
차도
앨런
포획
시경
행정소송
림프
찮은
루마
환희
워드
손모
절세
기권
수목원
울먹
아함
소울
왔다갔다
때메
힘찬
##ual
트로이
떡국
선아
통했
란스
적색
CES
곧잘
전자책
면도기
##ubl
1951
엘프
헬리
터리
성완종
카다
편집장
리코
리플
탕진
블랑
##ance
항암제
해프닝
UHD
추수
##전입
##27
##itt
##전기
가린
앞머리
윗대
친목
해다
##다이
딸려
요르단
굳건히
도려내
##28
발주자
끄떡
구질구질
인화
치곤
USB
영유권
오름세
순번
강간범
골통
불러일으켰
기입
유재수
살충제
재범
공실
거른다
돌격
##명령
투표소
이러면
스포츠토토
걸어도
갈아탔
민간단체
알파벳
수혈
타르
떨어뜨려
위장전입
찾아올
##말라
리퍼
리카
날림
##사항
추징금
쉐보레
놀래
베가
모션
콧물
호봉
도로는
구월
필히
쥐어짜
밑돌
중하
레바논
벌어져
뽀로로
야쿠르트
남여
당사국
##투자증권
식판
밑단
라가
따가
탱탱
는바
중환자
##칩니다
안재현
본업
왕세자
항공모함
Joh
하산
로컬
##주곡
서툴
##95
삼국지
브릿
am
서태지
내팽
제스처
시청료
독촉
파이어
해준
이판
JP
양방
##미아
막혀서
애처
창호
기판
유실
조선총
완패
주조
ICBM
##지리
신호등
팔다리
미간
마크롱
부영
편백
지도력
7500
양육비
캡처
사셨
살펴본다
잇단
지정학
라디
옐로우
##슐린
탄원서
뜯기
##던트
이재오
##불성
비행장
곧이어
프리랜
전용기
RO
투영
거스르
조선총독부
재대로
평했
버르
##ash
욕한
미리미리
리니지
뼈대
등단
모일
쓸께
이동해
쾌거
역사가
닷새
수진
물어봐라
##게더
바티
총영
예예
확연
을사
들어줄
제단
다이얼
건드려
그린다
하강
노이
전류
오리온스
도표
모레
청해
##쿠니
드라구요
##진다는
##성대
좋아해
##보호
##차곡
문진
##ase
스카프
제곱
##샅이
뜬다
살라
차곡차곡
급박
보여줘
사절단
물줄기
상쇄
850
아킬
##26
편해졌
기어이
소각장
볼리
비닐봉
sid
샅샅이
카터
술수
망칠
집집
호에
배심원
꽃뱀
삼양
예고편
세타
생화학
청주시
윤정
인슐린
크리스탈
시종일관
타다
회비
금천
터트렸
우찌
편곡
종중
싸돌
투게더
##득점
훈련장
매수세
다이슨
##cl
거린
##긍긍
완강
경락
파이널
기껏해야
un
드러낼
프랭크
타살
넘나드
감미
핵미사일
전전긍긍
창업주
사저
돌림
좌익수
유라시아
말릴
##혈증
선거인단
##두부
단두
넥스
지킨다
불운
치우치
미들
플러
##대소
##용품
밸류
타진
##손가락
시킬려고
열띤
시끄러워
느껴져서
꼬붕
생김새
토스트
최고위
러서
레슨
임자
체장
토탈
카바
쏟아부
릴리
시향
##상조
싱크탱크
초년
사무직
중공군
사칭
토르
핸들링
어지럽히
개헌안
겸임
시가지
차분히
목수
빛났
형용
옛말
전시실
들이받
이용료
야욕
배지
왕궁
원희
현대증권
디렉터
피식
##ㅈㄱ
트레이너
기울일
나체
물증
식스
오갔
아전
평지
##oss
백운
GR
고덕
비수기
유스
간수
세아
중앙아시아
라틴어
살벌
윤동
노브
일러스트
sec
어정쩡
면직
화교
노키아
가정폭력
이덕
조아리
이끌어냈
크리스티
관은
나성
반한
양조
허비
##ax
해결사
강화도
수은
죄의식
최문
합의금
행패
번성
##세스
산천
포르쉐
세브
통도
##란도
조오
치장
걸세
노상
매서
여호와
신년사
##텔링
불면증
상업시설
미남
황산
스토리텔링
충성심
똥파리
재우
풀무원
브러
고위층
뒷배
##지변
베푸
스가
눈초리
##모리
전동차
##다발
바꼈
비싼데
라멘
이학
IR
5500
앞당기
시몬
헌납
##보살
시그널
호세
공유기
무패
그로
마리오
##are
잔고
##메리카
빈소
##예우
송전탑
히데
접했
흡연자
불명예
번져
왕건
이서
전래
하비
달서구
가로질러
세르비아
역주
다잖아
바꿔치기
뇌물죄
미대
가로채
호시
분하
어린이날
전관예우
떨어집니다
떠올려
모략
퓨처
벼룩
무서울
디딤
오롯
최인
빙그레
스타일리시
비노
##따라
DG
서클
숲길
더구만
##에다
굴하
윤회
섭리
웅크
화합물
전정
섀도
영양분
진우
구해서
범죄인
##마른
영락
빠져요
기뻐했
금물
송출
독서실
푼돈
자결
나우
건보
걷잡
##나불
거린다
내추
근황
SO
덩이
##85
사행
야야
항공편
KLPGA
도련
라니깐
극본
##꼴라
폭격기
베이커리
사변
어질
넘어간다
발코니
수프
몰릴
옥시
에비
##타자
순항
탈레
싱크대
크리스토
아네
난로
##로이드
마하
프리랜서
##ool
from
끊겼
##예프
무등
비아냥
총사퇴
전월세
사무장
포터
기해
DVD
사모님
머스
윌리엄스
펄펄
BI
다느니
주정차
권선
홍정
따먹
봉착
입항
도망간
##응보
성종
##ki
세무서
물으
캔디
누룽지
흐흐
군국
축축
시라
페인
세워졌
회고록
리메
벌어진다
교통수단
세조
신학자
오비
괜찬아요
어처구니없
우루과이
메리트
박빙
##수무책
속수무책
정성껏
##34
덧신
레이크
##모어
불러오
거북선
슬라이드
다그
관음
심증
##바라지
인과응보
부국
원어민
##잘못
악역
버들
여포
##유리
로그인
전산망
가인
무튼
빙하
언론통제
빌려서
논두렁
카리
대물림
따낸
쪼이
간선
##수도
요구르트
개요
자형
모종
진두
##만치
노량
이끼
위기관리
돌려야
깽깽이
그을
SE
등대
요점
강민호
맨발
닫혀
지프
철분
흩어지
##야구장
사하
애호가
전세기
맹박
캘리포니아주
헤치
으셨어요
머뭇거리
퍼트린
진찰
팩토리
조우
병아리
했어여
사들였
학번
헬렌
먹인
고달
회가
볼래
스스
불금
찔렀
수재
주성
##★★
알짜
##MS
깻잎
홍남
망라
시오
비화
##삼촌
수연
##푸르트
야산
망가진
상했
엽서
샌디
급상승
겉모습
방편
만지작
쏙쏙
꿀꿀
##터치
입담
전태
패악
Ed
오감
오더
사들인
밥줄
공경
통탄
##허전
거름
닭발
한솔
##축제
격돌
안토니
소나타
##글라
후추
성큼
빨리빨리
논조
승산
허상
황희
삼계탕
세정제
버팀
소추
히스
토론토
##데시
이동식
나아요
감청
야유
올라타
매연
눌려
밉상
##탱이
알맹이
자른
내진
